
#ifdef __has_attribute
#define HAVE_ATTRIBUTE(x) __has_attribute(x)
#else
#define HAVE_ATTRIBUTE(x) 0
#endif
#if HAVE_ATTRIBUTE(aligned) || (defined(__GNUC__) && !defined(__clang__))
#define DATA_ALIGN_ATTRIBUTE __attribute__((aligned(4)))
#else
#define DATA_ALIGN_ATTRIBUTE
#endif

const unsigned char WineClassificationModel[] DATA_ALIGN_ATTRIBUTE = {
	0x1c, 0x00, 0x00, 0x00, 0x54, 0x46, 0x4c, 0x33, 0x14, 0x00, 0x20, 0x00, 
	0x1c, 0x00, 0x18, 0x00, 0x14, 0x00, 0x10, 0x00, 0x0c, 0x00, 0x00, 0x00, 
	0x08, 0x00, 0x04, 0x00, 0x14, 0x00, 0x00, 0x00, 0x1c, 0x00, 0x00, 0x00, 
	0x90, 0x00, 0x00, 0x00, 0xe8, 0x00, 0x00, 0x00, 0x74, 0x15, 0x00, 0x00, 
	0x84, 0x15, 0x00, 0x00, 0x40, 0x1b, 0x00, 0x00, 0x03, 0x00, 0x00, 0x00, 
	0x01, 0x00, 0x00, 0x00, 0x10, 0x00, 0x00, 0x00, 0x00, 0x00, 0x0a, 0x00, 
	0x10, 0x00, 0x0c, 0x00, 0x08, 0x00, 0x04, 0x00, 0x0a, 0x00, 0x00, 0x00, 
	0x0c, 0x00, 0x00, 0x00, 0x1c, 0x00, 0x00, 0x00, 0x38, 0x00, 0x00, 0x00, 
	0x0f, 0x00, 0x00, 0x00, 0x73, 0x65, 0x72, 0x76, 0x69, 0x6e, 0x67, 0x5f, 
	0x64, 0x65, 0x66, 0x61, 0x75, 0x6c, 0x74, 0x00, 0x01, 0x00, 0x00, 0x00, 
	0x04, 0x00, 0x00, 0x00, 0x98, 0xff, 0xff, 0xff, 0x0a, 0x00, 0x00, 0x00, 
	0x04, 0x00, 0x00, 0x00, 0x07, 0x00, 0x00, 0x00, 0x64, 0x65, 0x6e, 0x73, 
	0x65, 0x5f, 0x32, 0x00, 0x01, 0x00, 0x00, 0x00, 0x04, 0x00, 0x00, 0x00, 
	0x6e, 0xea, 0xff, 0xff, 0x04, 0x00, 0x00, 0x00, 0x0b, 0x00, 0x00, 0x00, 
	0x64, 0x65, 0x6e, 0x73, 0x65, 0x5f, 0x69, 0x6e, 0x70, 0x75, 0x74, 0x00, 
	0x02, 0x00, 0x00, 0x00, 0x34, 0x00, 0x00, 0x00, 0x04, 0x00, 0x00, 0x00, 
	0xdc, 0xff, 0xff, 0xff, 0x0d, 0x00, 0x00, 0x00, 0x04, 0x00, 0x00, 0x00, 
	0x13, 0x00, 0x00, 0x00, 0x43, 0x4f, 0x4e, 0x56, 0x45, 0x52, 0x53, 0x49, 
	0x4f, 0x4e, 0x5f, 0x4d, 0x45, 0x54, 0x41, 0x44, 0x41, 0x54, 0x41, 0x00, 
	0x08, 0x00, 0x0c, 0x00, 0x08, 0x00, 0x04, 0x00, 0x08, 0x00, 0x00, 0x00, 
	0x0c, 0x00, 0x00, 0x00, 0x04, 0x00, 0x00, 0x00, 0x13, 0x00, 0x00, 0x00, 
	0x6d, 0x69, 0x6e, 0x5f, 0x72, 0x75, 0x6e, 0x74, 0x69, 0x6d, 0x65, 0x5f, 
	0x76, 0x65, 0x72, 0x73, 0x69, 0x6f, 0x6e, 0x00, 0x0e, 0x00, 0x00, 0x00, 
	0x88, 0x14, 0x00, 0x00, 0x80, 0x14, 0x00, 0x00, 0xd0, 0x13, 0x00, 0x00, 
	0xb4, 0x13, 0x00, 0x00, 0x54, 0x13, 0x00, 0x00, 0x34, 0x0f, 0x00, 0x00, 
	0xa4, 0x02, 0x00, 0x00, 0xb4, 0x00, 0x00, 0x00, 0xac, 0x00, 0x00, 0x00, 
	0xa4, 0x00, 0x00, 0x00, 0x9c, 0x00, 0x00, 0x00, 0x94, 0x00, 0x00, 0x00, 
	0x74, 0x00, 0x00, 0x00, 0x04, 0x00, 0x00, 0x00, 0x1e, 0xeb, 0xff, 0xff, 
	0x04, 0x00, 0x00, 0x00, 0x60, 0x00, 0x00, 0x00, 0x0c, 0x00, 0x00, 0x00, 
	0x08, 0x00, 0x0e, 0x00, 0x08, 0x00, 0x04, 0x00, 0x08, 0x00, 0x00, 0x00, 
	0x10, 0x00, 0x00, 0x00, 0x24, 0x00, 0x00, 0x00, 0x00, 0x00, 0x06, 0x00, 
	0x08, 0x00, 0x04, 0x00, 0x06, 0x00, 0x00, 0x00, 0x04, 0x00, 0x00, 0x00, 
	0x00, 0x00, 0x00, 0x00, 0x00, 0x00, 0x0a, 0x00, 0x10, 0x00, 0x0c, 0x00, 
	0x08, 0x00, 0x04, 0x00, 0x0a, 0x00, 0x00, 0x00, 0x02, 0x00, 0x00, 0x00, 
	0x02, 0x00, 0x00, 0x00, 0x04, 0x00, 0x00, 0x00, 0x12, 0x00, 0x00, 0x00, 
	0x32, 0x2e, 0x31, 0x34, 0x2e, 0x30, 0x2d, 0x64, 0x65, 0x76, 0x32, 0x30, 
	0x32, 0x33, 0x30, 0x35, 0x31, 0x39, 0x00, 0x00, 0x8a, 0xeb, 0xff, 0xff, 
	0x04, 0x00, 0x00, 0x00, 0x10, 0x00, 0x00, 0x00, 0x31, 0x2e, 0x35, 0x2e, 
	0x30, 0x00, 0x00, 0x00, 0x00, 0x00, 0x00, 0x00, 0x00, 0x00, 0x00, 0x00, 
	0x98, 0xe6, 0xff, 0xff, 0x9c, 0xe6, 0xff, 0xff, 0xa0, 0xe6, 0xff, 0xff, 
	0xa4, 0xe6, 0xff, 0xff, 0xb6, 0xeb, 0xff, 0xff, 0x04, 0x00, 0x00, 0x00, 
	0xe0, 0x01, 0x00, 0x00, 0x82, 0x17, 0xa2, 0xbe, 0x56, 0x56, 0xb8, 0x3e, 
	0x00, 0xbd, 0xbe, 0x3b, 0x3f, 0xba, 0x5f, 0xbc, 0x1c, 0x26, 0x3a, 0xbe, 
	0xd8, 0xee, 0x0d, 0x3e, 0x1a, 0xe1, 0x46, 0x3d, 0xd6, 0xe5, 0x56, 0xbe, 
	0x7c, 0x44, 0x4f, 0x3e, 0x23, 0x91, 0x5f, 0xbe, 0xca, 0x48, 0x11, 0x3e, 
	0x42, 0x78, 0x89, 0x3e, 0x76, 0x6f, 0x09, 0x3e, 0x01, 0x64, 0x1a, 0xbe, 
	0x50, 0x04, 0x35, 0x3e, 0x3e, 0x81, 0x0f, 0xbe, 0x95, 0xd2, 0x1c, 0x3e, 
	0x56, 0xec, 0x98, 0xbe, 0x38, 0x96, 0x62, 0xbe, 0x70, 0x35, 0xaf, 0xbc, 
	0xa0, 0xe1, 0xbe, 0x3d, 0xcb, 0x50, 0xa3, 0xbe, 0x93, 0x10, 0x34, 0xbe, 
	0x52, 0xf5, 0x72, 0x3e, 0xf8, 0x93, 0x0b, 0xbe, 0x2f, 0xb9, 0x7c, 0xbe, 
	0xb0, 0x35, 0x81, 0xbe, 0xb4, 0x0c, 0xbb, 0xbd, 0x04, 0xdb, 0x36, 0x3e, 
	0xbe, 0x6b, 0x6b, 0xbe, 0x84, 0x0b, 0x22, 0x3e, 0xd2, 0xd2, 0xa8, 0xbd, 
	0x78, 0x70, 0x82, 0x3e, 0xac, 0x20, 0x8f, 0x3e, 0x5b, 0x9a, 0x0a, 0xbe, 
	0x62, 0xc2, 0xdd, 0xbd, 0x00, 0x6d, 0x6f, 0xbd, 0x58, 0xd8, 0x96, 0x3e, 
	0x49, 0xb8, 0xbb, 0x3e, 0x49, 0xdc, 0xbb, 0x3e, 0xab, 0x70, 0x34, 0xbe, 
	0xa0, 0x77, 0x83, 0xbd, 0xce, 0x1f, 0xac, 0x3e, 0x2f, 0xf3, 0x4d, 0xbd, 
	0xfc, 0x34, 0xb2, 0x3e, 0x02, 0x8f, 0x56, 0xbe, 0x61, 0x29, 0xbb, 0x3b, 
	0x3a, 0x08, 0xcd, 0x3d, 0x20, 0x8c, 0xe3, 0xbd, 0x19, 0xa8, 0x4d, 0xbd, 
	0xd0, 0xf2, 0xac, 0x3e, 0x16, 0xa9, 0xa7, 0x3e, 0xb4, 0xcf, 0xa6, 0xbd, 
	0x08, 0x2a, 0xac, 0x3e, 0xe2, 0xbe, 0x5f, 0xbe, 0x20, 0xf3, 0xaf, 0x3e, 
	0x88, 0x42, 0x99, 0x3e, 0x08, 0xf0, 0x0a, 0x3e, 0xe9, 0xfc, 0x71, 0x3e, 
	0x00, 0xec, 0x3c, 0xba, 0x44, 0xcd, 0x62, 0xbe, 0x02, 0xaf, 0x35, 0x3e, 
	0x6c, 0xa5, 0x19, 0x3e, 0x94, 0x99, 0xf2, 0xbd, 0x84, 0xed, 0x52, 0x3e, 
	0x34, 0x1b, 0x89, 0x3d, 0xbc, 0x8b, 0x9b, 0x3e, 0xe1, 0x54, 0x01, 0xbe, 
	0x4c, 0xb6, 0xee, 0x3d, 0xc3, 0x56, 0x9b, 0x3c, 0xe4, 0x9f, 0x6c, 0x3e, 
	0xec, 0xb3, 0x32, 0xb9, 0x10, 0x5b, 0x6c, 0x3d, 0xa5, 0x07, 0x43, 0xbe, 
	0x80, 0x4d, 0x94, 0x3c, 0x21, 0x07, 0x06, 0x3e, 0xfc, 0xb6, 0x02, 0x3e, 
	0x77, 0xa0, 0x8d, 0xbe, 0xe2, 0x05, 0x97, 0x3e, 0x79, 0x51, 0xa0, 0xbe, 
	0x1d, 0x1c, 0xed, 0x3d, 0xd9, 0xbe, 0x6d, 0xbe, 0xe8, 0x18, 0x3b, 0xbd, 
	0xdd, 0x3a, 0x2f, 0x3c, 0x94, 0x7d, 0x68, 0xbe, 0x9a, 0x14, 0x9a, 0xbe, 
	0xc5, 0x1f, 0x8b, 0xbe, 0xee, 0x34, 0x40, 0x3e, 0x78, 0x1a, 0x02, 0x3e, 
	0x75, 0x64, 0x34, 0x3d, 0xe6, 0x94, 0x39, 0xbe, 0xc5, 0x9c, 0x29, 0x3e, 
	0x96, 0x78, 0x7c, 0x3d, 0xd0, 0x4f, 0xed, 0xbc, 0xd4, 0x32, 0xd7, 0x3d, 
	0xcf, 0x29, 0x92, 0xbe, 0xd8, 0x82, 0x11, 0x3e, 0x64, 0x5a, 0x02, 0x3e, 
	0x4c, 0x31, 0xf5, 0x3d, 0xba, 0xf2, 0x87, 0xbe, 0x01, 0x2e, 0x72, 0xbe, 
	0xe2, 0xb5, 0xe9, 0xbc, 0xb8, 0x36, 0x0d, 0xbd, 0x80, 0x2d, 0x45, 0x3d, 
	0x38, 0x12, 0x36, 0xbd, 0xbd, 0x74, 0xe6, 0x3c, 0x35, 0xda, 0x9e, 0xbe, 
	0x8a, 0xc8, 0xa5, 0xbe, 0xcc, 0x42, 0xbf, 0xbd, 0xcb, 0xb2, 0xf9, 0xbd, 
	0xfa, 0x1d, 0xa2, 0xbe, 0x69, 0xbe, 0x27, 0x3e, 0x17, 0x27, 0x62, 0xbe, 
	0xe6, 0xe7, 0x8b, 0x3d, 0x08, 0xb3, 0xb0, 0x3e, 0x56, 0xb1, 0x21, 0x3e, 
	0x28, 0x1c, 0xbd, 0x3e, 0x4c, 0x0c, 0x0a, 0xbe, 0x3d, 0xa8, 0x88, 0x3e, 
	0x97, 0x01, 0x7b, 0x3e, 0xa2, 0xed, 0xff, 0xff, 0x04, 0x00, 0x00, 0x00, 
	0x80, 0x0c, 0x00, 0x00, 0x03, 0x01, 0x8a, 0xbe, 0xb8, 0xf3, 0x7b, 0x3e, 
	0xea, 0x80, 0x6c, 0xbe, 0x19, 0x1e, 0x95, 0xbe, 0xbb, 0x9e, 0x9b, 0xbe, 
	0x0c, 0xe2, 0xaa, 0x3d, 0x85, 0xbd, 0x84, 0xbe, 0x76, 0x82, 0x31, 0xbe, 
	0x42, 0x06, 0xd6, 0x3b, 0x8c, 0x88, 0xc1, 0xbd, 0x20, 0x8d, 0xc8, 0x3d, 
	0x99, 0x99, 0x7b, 0xbd, 0x16, 0xd6, 0x99, 0xbe, 0xd5, 0x04, 0x7c, 0x3e, 
	0x6a, 0xea, 0x3c, 0x3e, 0xa4, 0x02, 0xa7, 0xbd, 0xd5, 0x0e, 0xf2, 0xbd, 
	0xbb, 0xf9, 0xa7, 0x3e, 0x68, 0x7e, 0x77, 0xbe, 0x90, 0x43, 0xb0, 0x3e, 
	0x0f, 0x3e, 0x3e, 0xbe, 0xe2, 0x0d, 0x59, 0xbe, 0xe6, 0xaf, 0x04, 0x3e, 
	0x06, 0xd2, 0x22, 0x3e, 0x39, 0x00, 0x5f, 0xbe, 0x9e, 0xeb, 0x94, 0xbe, 
	0xe6, 0x93, 0x64, 0x3e, 0x4a, 0x99, 0x51, 0xbe, 0x5c, 0xf4, 0x20, 0xbe, 
	0x80, 0x01, 0x54, 0x3b, 0x15, 0x44, 0x1d, 0xbe, 0xff, 0x93, 0x21, 0xbe, 
	0x78, 0x9f, 0xc4, 0x3d, 0x98, 0x43, 0x34, 0xbd, 0x9c, 0xab, 0x47, 0xbe, 
	0x04, 0x55, 0xd8, 0x3d, 0x1e, 0x48, 0x8a, 0xbe, 0x26, 0x03, 0x55, 0x3e, 
	0xf3, 0x38, 0x85, 0x3e, 0xf8, 0x2f, 0x0b, 0x3e, 0xde, 0x9d, 0x73, 0xbe, 
	0xe8, 0x7d, 0x3c, 0xbe, 0x88, 0xe8, 0x7f, 0xbe, 0x8f, 0x90, 0x8b, 0xbe, 
	0x12, 0x8a, 0x87, 0xbe, 0x9b, 0x54, 0x5a, 0xbe, 0xba, 0xbf, 0x0d, 0x3e, 
	0xe0, 0x23, 0x18, 0xbc, 0xe2, 0x74, 0x97, 0xbe, 0xde, 0x39, 0x80, 0xbe, 
	0x41, 0x9b, 0x92, 0x3e, 0x64, 0x3e, 0x77, 0xbe, 0x48, 0x84, 0x73, 0xbd, 
	0xf0, 0x1a, 0xac, 0x3c, 0x4e, 0xde, 0x9a, 0xbe, 0x24, 0xc1, 0xd9, 0xbd, 
	0x3a, 0x7d, 0x57, 0x3e, 0xbf, 0x17, 0x8a, 0x3e, 0xc8, 0xf9, 0x58, 0xbe, 
	0x36, 0xf8, 0x23, 0x3e, 0x58, 0x0f, 0xa4, 0x3e, 0x1c, 0xed, 0xb1, 0x3d, 
	0xd6, 0xcb, 0x5a, 0xbe, 0x18, 0xcd, 0x2e, 0x3e, 0xea, 0x06, 0x97, 0xbd, 
	0xdf, 0xf5, 0x9d, 0xbe, 0xe6, 0x0b, 0x1b, 0xbe, 0x9e, 0x13, 0xd0, 0x3d, 
	0x0e, 0x61, 0x11, 0x3e, 0x94, 0xe0, 0x00, 0x3e, 0x72, 0x3b, 0x06, 0x3e, 
	0xe5, 0x2e, 0x29, 0xbe, 0x30, 0x92, 0x0c, 0xbe, 0x3c, 0x82, 0xee, 0x3d, 
	0x88, 0xc3, 0x71, 0xbd, 0x1d, 0x6d, 0xcd, 0x3d, 0x40, 0xe7, 0x85, 0x3e, 
	0x44, 0x7f, 0x5f, 0x3e, 0x03, 0xc5, 0xea, 0xbc, 0xca, 0xae, 0x75, 0x3e, 
	0xa5, 0x33, 0x94, 0x3e, 0xab, 0x41, 0x19, 0xbe, 0x5e, 0x20, 0xc3, 0xbd, 
	0x11, 0x15, 0x87, 0x3e, 0x52, 0x63, 0x98, 0xbd, 0x0f, 0x6f, 0x25, 0xbe, 
	0x60, 0xd7, 0x4e, 0xbc, 0x50, 0x63, 0xb8, 0x3d, 0xa4, 0x99, 0x10, 0x3e, 
	0x2e, 0x2b, 0x8b, 0xbe, 0x50, 0x70, 0x23, 0x3e, 0x10, 0x4f, 0xa2, 0xbd, 
	0x42, 0xb6, 0x23, 0x3e, 0xc0, 0x4b, 0x16, 0x3e, 0x60, 0xe5, 0x78, 0xbd, 
	0x21, 0xfe, 0x4b, 0xbe, 0x0e, 0x5a, 0xb3, 0xbd, 0xc6, 0x8a, 0xa9, 0xbd, 
	0x26, 0x07, 0x3d, 0xbe, 0x82, 0xb6, 0x1f, 0x3e, 0xad, 0x1c, 0x87, 0x3e, 
	0x38, 0xd8, 0xc2, 0x3d, 0x34, 0x83, 0x96, 0x3d, 0x66, 0xe7, 0x5e, 0xbe, 
	0x38, 0xe0, 0xad, 0x3d, 0x91, 0xb6, 0x1b, 0xbe, 0x80, 0x68, 0x75, 0x3b, 
	0x14, 0xe1, 0x8e, 0xbe, 0x94, 0x42, 0x26, 0xbe, 0xa0, 0x65, 0x59, 0x3d, 
	0x2a, 0x9d, 0x37, 0x3e, 0x68, 0xf7, 0x13, 0x3d, 0x0e, 0x1d, 0x8e, 0xbd, 
	0x36, 0xdd, 0x79, 0xbe, 0xa8, 0xc7, 0x85, 0xbe, 0x03, 0x43, 0x94, 0xbe, 
	0x18, 0xf3, 0x79, 0xbd, 0xed, 0x5e, 0x24, 0xbe, 0x98, 0x85, 0x23, 0x3d, 
	0xb2, 0xb3, 0xc8, 0xbd, 0x49, 0x49, 0xb5, 0x3d, 0x18, 0xde, 0x6a, 0x3e, 
	0x3d, 0x2d, 0x50, 0x3d, 0x82, 0x4a, 0xf4, 0xbd, 0x84, 0xf8, 0x7b, 0xbe, 
	0x95, 0x5c, 0x8a, 0xbe, 0x7b, 0x1f, 0x74, 0xbe, 0x08, 0x10, 0xa3, 0xba, 
	0xa5, 0x6b, 0x0d, 0xbe, 0x32, 0x1e, 0x2d, 0xbe, 0x3e, 0x7f, 0x68, 0xbe, 
	0x7e, 0x52, 0xee, 0xbd, 0xa0, 0x84, 0x76, 0xbe, 0x98, 0x95, 0xa0, 0x3b, 
	0x10, 0x22, 0x9e, 0x3c, 0x87, 0x1b, 0x4e, 0x3e, 0x26, 0x7c, 0x19, 0xbe, 
	0x62, 0x81, 0x6d, 0x3d, 0xeb, 0xc3, 0xf5, 0xbd, 0x44, 0x7f, 0xaa, 0xbe, 
	0x1d, 0xd1, 0x6c, 0x3d, 0xf2, 0x8c, 0x2c, 0x3e, 0xda, 0xc7, 0x0b, 0xbe, 
	0x00, 0xab, 0x42, 0x3c, 0xbc, 0x53, 0x87, 0xbd, 0xa8, 0x10, 0x9c, 0x3d, 
	0x66, 0xb3, 0x82, 0x3e, 0x65, 0xe1, 0xcc, 0xbd, 0x8a, 0xd9, 0x96, 0x3c, 
	0x00, 0xc1, 0xc9, 0x3c, 0x52, 0xcc, 0x97, 0xbe, 0xb4, 0x0b, 0x9a, 0xbe, 
	0x18, 0x3c, 0xbf, 0x3d, 0x4b, 0xf1, 0x96, 0x3d, 0x4c, 0xd7, 0x81, 0xbd, 
	0x5a, 0x3b, 0x88, 0x3e, 0xd6, 0xe5, 0x83, 0x3e, 0x29, 0xfb, 0x8c, 0xbe, 
	0x2b, 0xfd, 0x76, 0x3e, 0xbc, 0xb7, 0x98, 0x3e, 0xfc, 0xc1, 0xa7, 0xbd, 
	0x25, 0x19, 0x90, 0x3e, 0xa0, 0xa0, 0x33, 0xbc, 0xe8, 0x3b, 0x28, 0x3e, 
	0xe6, 0xc7, 0x5f, 0x3e, 0x52, 0x79, 0x63, 0x3e, 0x52, 0x95, 0x7f, 0x3e, 
	0xc0, 0x05, 0x6f, 0xbd, 0x91, 0x0b, 0x86, 0x3e, 0x2e, 0xb1, 0xaa, 0xbd, 
	0x3a, 0x1a, 0x75, 0xbe, 0x7b, 0xdb, 0x9f, 0xbe, 0x00, 0x88, 0xf4, 0xba, 
	0xb0, 0x10, 0xe4, 0xbc, 0x25, 0x3b, 0x84, 0x3e, 0x48, 0x5a, 0x27, 0xbe, 
	0xb6, 0x81, 0x72, 0x3e, 0x9e, 0x51, 0xc6, 0xbd, 0xed, 0xef, 0x0c, 0xbe, 
	0x7a, 0x87, 0x23, 0xbe, 0x49, 0xea, 0x59, 0x3e, 0x22, 0x5c, 0xa9, 0x3d, 
	0x5f, 0x31, 0xe4, 0x3d, 0xc8, 0x38, 0x7e, 0x3d, 0x10, 0xe2, 0xde, 0xbc, 
	0xb2, 0xfd, 0x0b, 0x3e, 0xa2, 0x92, 0xa9, 0xbb, 0x06, 0xc4, 0x9b, 0xbe, 
	0x54, 0x5d, 0x09, 0x3e, 0x00, 0xfd, 0x24, 0x3c, 0xf8, 0x64, 0x03, 0xbe, 
	0x98, 0xda, 0x85, 0x3e, 0xa2, 0x37, 0x13, 0x3e, 0xfd, 0xc4, 0x85, 0x3e, 
	0xdb, 0x0e, 0x7a, 0xbe, 0x7e, 0x23, 0x10, 0x3e, 0x83, 0x51, 0x46, 0x3e, 
	0x48, 0xfe, 0x09, 0xbe, 0x25, 0xba, 0x72, 0xbe, 0xfc, 0xf8, 0x83, 0xbe, 
	0x98, 0x9d, 0x8b, 0x3e, 0x46, 0x6f, 0x85, 0x3d, 0x30, 0x34, 0x70, 0x3d, 
	0x97, 0x77, 0x9b, 0x3e, 0xb1, 0x2b, 0xa0, 0x3e, 0xc0, 0x0d, 0xfd, 0xbb, 
	0x41, 0xfb, 0x98, 0xbd, 0xd0, 0x0a, 0xf1, 0xbc, 0xd1, 0xa4, 0x82, 0x3e, 
	0x45, 0x39, 0x43, 0xbe, 0xb5, 0xd4, 0x05, 0xbe, 0x42, 0x5e, 0xf2, 0x3d, 
	0xeb, 0x5c, 0x42, 0xbe, 0xd5, 0x38, 0x96, 0x3d, 0xb3, 0x05, 0x91, 0x3e, 
	0x81, 0x3d, 0x89, 0x3e, 0xa0, 0xb4, 0x6e, 0xbe, 0x8c, 0x9e, 0x3b, 0x3e, 
	0x3b, 0x7f, 0x29, 0x3e, 0x42, 0xb6, 0x99, 0xbe, 0x5a, 0x7a, 0x4d, 0xbe, 
	0x51, 0xd5, 0x91, 0xbe, 0x1e, 0xe3, 0xe1, 0xbd, 0x22, 0x27, 0x6a, 0x3e, 
	0x3b, 0x99, 0x82, 0x3e, 0xc0, 0x40, 0xbe, 0x3c, 0x11, 0x6e, 0x79, 0xbd, 
	0xa8, 0x02, 0x77, 0xbd, 0xe5, 0x7c, 0x24, 0x3e, 0x7d, 0x82, 0x8b, 0xbe, 
	0xfa, 0x1a, 0x55, 0x3e, 0x65, 0x4b, 0x89, 0x3e, 0x20, 0x4d, 0x05, 0x3c, 
	0x89, 0xd3, 0xaa, 0xbe, 0x48, 0x2d, 0xd2, 0xbd, 0xea, 0xd1, 0xbe, 0x3d, 
	0x50, 0xa6, 0x91, 0x3e, 0xb6, 0xe6, 0x70, 0x3e, 0xab, 0x2f, 0x44, 0xbe, 
	0x10, 0xf9, 0xca, 0xbd, 0xc8, 0xda, 0xde, 0x3d, 0x13, 0x3d, 0x37, 0x3e, 
	0x12, 0x74, 0x91, 0xbe, 0x58, 0xe6, 0x91, 0xbe, 0x26, 0x70, 0xa8, 0xbd, 
	0x60, 0x9f, 0x10, 0x3e, 0x55, 0xbb, 0x49, 0x3e, 0x1e, 0x51, 0x67, 0x3e, 
	0xdf, 0xbe, 0xa4, 0x3e, 0xa0, 0xee, 0xc6, 0xbd, 0x0c, 0x23, 0xcc, 0x3d, 
	0xea, 0x3b, 0x4f, 0xbc, 0x4d, 0x69, 0x8a, 0x3e, 0xbb, 0xb5, 0x04, 0x3e, 
	0xb5, 0xe7, 0x53, 0xbe, 0x8e, 0x48, 0x8c, 0xbb, 0xd3, 0x50, 0x38, 0xbe, 
	0x0a, 0xe0, 0x18, 0x3d, 0x55, 0x37, 0x56, 0x3e, 0x2b, 0xeb, 0x17, 0xbe, 
	0xb6, 0x09, 0x6b, 0x3e, 0x40, 0x6d, 0xba, 0xbc, 0xd4, 0x3b, 0x81, 0xbd, 
	0xad, 0x84, 0x89, 0x3e, 0x00, 0x6a, 0x23, 0x3d, 0x7d, 0x8f, 0x9c, 0xbe, 
	0x73, 0xbe, 0x8e, 0x3e, 0x38, 0xe0, 0xad, 0xbd, 0xf8, 0x52, 0x65, 0x3d, 
	0xcc, 0x16, 0xc3, 0x3d, 0xb0, 0x9b, 0x8f, 0xbd, 0x16, 0x57, 0x8e, 0xbd, 
	0xe0, 0x62, 0xed, 0xbd, 0x8a, 0x8c, 0x98, 0xbe, 0x52, 0x20, 0x9b, 0xbd, 
	0x28, 0xcb, 0x48, 0xbe, 0x28, 0xb3, 0x27, 0xbd, 0x88, 0xe0, 0x56, 0x3d, 
	0x46, 0x91, 0xfc, 0xbd, 0xd2, 0x83, 0x7e, 0x3e, 0xfc, 0x12, 0x5d, 0xbe, 
	0x16, 0xda, 0x12, 0x3e, 0x23, 0x26, 0x9f, 0x3e, 0x5d, 0xb8, 0x90, 0x3e, 
	0x8e, 0x61, 0x21, 0x3e, 0x60, 0xc3, 0xd4, 0x3c, 0x50, 0xe3, 0x26, 0x3d, 
	0x16, 0x0d, 0x68, 0xbe, 0x80, 0xfe, 0xa6, 0xbc, 0x45, 0xbd, 0x12, 0xbe, 
	0x4c, 0x33, 0x2f, 0xbe, 0x18, 0x79, 0xc1, 0xbd, 0x94, 0x3c, 0x0e, 0x3e, 
	0xc0, 0x5c, 0x86, 0x3b, 0x6a, 0x51, 0x7c, 0x3e, 0x9c, 0xc9, 0x2d, 0xbe, 
	0x8b, 0x1e, 0x8a, 0xbe, 0xe0, 0xbc, 0x45, 0x3d, 0x9d, 0x1c, 0x88, 0xbe, 
	0x90, 0x38, 0xb0, 0xbc, 0x35, 0xec, 0x4d, 0xbe, 0x8a, 0xb5, 0x4f, 0x3e, 
	0x5d, 0x61, 0xb6, 0x3d, 0x38, 0xb0, 0xb1, 0x3d, 0xc7, 0xad, 0x0f, 0xbe, 
	0x72, 0xe6, 0x16, 0x3e, 0x30, 0x36, 0x64, 0x3e, 0x9b, 0xb3, 0x60, 0xbe, 
	0x51, 0xb1, 0xf7, 0x3d, 0xdd, 0x07, 0x88, 0x3e, 0x08, 0x13, 0xaa, 0x3d, 
	0xdd, 0x49, 0x86, 0x3e, 0x34, 0xfd, 0x3b, 0xbe, 0xbc, 0x94, 0xe5, 0x3d, 
	0x1c, 0x59, 0xa0, 0xbe, 0xcf, 0x12, 0x7f, 0xbc, 0x6d, 0x5a, 0x97, 0xbe, 
	0x3b, 0x82, 0x39, 0x3e, 0xa0, 0xb8, 0x03, 0xbe, 0x3c, 0xa4, 0xfe, 0xbd, 
	0x3d, 0xbb, 0xbb, 0x3b, 0x89, 0x04, 0xd1, 0xbd, 0x20, 0x2c, 0x89, 0x3e, 
	0x9c, 0x30, 0xe6, 0xbd, 0x5a, 0x23, 0x40, 0xbe, 0x1e, 0x00, 0x34, 0x3e, 
	0x2c, 0xda, 0x51, 0x3d, 0x75, 0x73, 0x53, 0x3d, 0x89, 0x81, 0x8b, 0xbd, 
	0xc4, 0xca, 0x1b, 0xbe, 0x62, 0x07, 0x40, 0xbe, 0xbc, 0x2a, 0x7c, 0x3e, 
	0xd8, 0xdd, 0x1b, 0x3d, 0xc4, 0x82, 0xb1, 0xbd, 0x95, 0xdb, 0x90, 0x3e, 
	0xae, 0xd6, 0xd6, 0x3c, 0xc4, 0x2b, 0x67, 0x3e, 0x19, 0x85, 0x4a, 0x3d, 
	0xc0, 0xe1, 0x28, 0xbe, 0x05, 0x56, 0x33, 0xbe, 0x20, 0x25, 0x57, 0x3c, 
	0xd9, 0xb0, 0x64, 0xbe, 0xc0, 0xa5, 0x76, 0xbe, 0xe8, 0x4e, 0x74, 0xbd, 
	0x40, 0x5e, 0x43, 0x3c, 0x30, 0xdd, 0x4f, 0xbe, 0x94, 0x70, 0x01, 0x3e, 
	0x46, 0x87, 0x6b, 0x3e, 0x42, 0x6e, 0xea, 0xbd, 0x9c, 0x78, 0x82, 0xbd, 
	0x40, 0xf7, 0x19, 0xbc, 0xe1, 0x99, 0x23, 0xbe, 0x4d, 0xc1, 0x99, 0x3e, 
	0xc7, 0xc8, 0x89, 0x3e, 0xde, 0x4e, 0x8f, 0xbe, 0x87, 0x84, 0x8a, 0xbe, 
	0x56, 0xe2, 0x98, 0xbe, 0xea, 0xdc, 0x70, 0xbe, 0x4f, 0x0d, 0x8b, 0x3e, 
	0x5c, 0x6a, 0x36, 0x3e, 0x7d, 0x76, 0x8c, 0xbe, 0xc6, 0x78, 0xa5, 0xbd, 
	0xef, 0x60, 0x15, 0x3e, 0xc7, 0xb7, 0x3c, 0xbe, 0x50, 0x1a, 0x1e, 0xbd, 
	0x8f, 0x20, 0x9a, 0xbe, 0x61, 0x1c, 0xf6, 0xbd, 0xb0, 0x9f, 0xb9, 0x3d, 
	0xbb, 0x87, 0xc6, 0xbd, 0x00, 0xb5, 0xb7, 0xba, 0x40, 0x84, 0x86, 0xbd, 
	0x81, 0xd0, 0x73, 0x3e, 0x35, 0xf3, 0x89, 0x3e, 0x05, 0xfb, 0x61, 0x3e, 
	0x3c, 0x72, 0xc5, 0x3d, 0x2b, 0xdc, 0x7a, 0x3d, 0x8a, 0xbc, 0x6a, 0x3e, 
	0xec, 0xe2, 0x63, 0xbe, 0x18, 0x5d, 0x94, 0xbe, 0x0c, 0x2e, 0x91, 0x3e, 
	0xaa, 0x4f, 0x6a, 0xbe, 0x99, 0x45, 0x39, 0xbe, 0x86, 0x1d, 0x82, 0xbe, 
	0x44, 0xe1, 0xa6, 0x3d, 0xde, 0x0c, 0x68, 0xbe, 0xae, 0x4e, 0x11, 0x3e, 
	0xc2, 0x10, 0x0a, 0x3e, 0xb0, 0xaf, 0x22, 0x3e, 0x00, 0x00, 0x6b, 0x3a, 
	0x92, 0x14, 0x23, 0x3e, 0xc0, 0x21, 0xbd, 0x3b, 0x3e, 0x2c, 0x7c, 0x3e, 
	0x24, 0xaf, 0xd5, 0x3d, 0x3c, 0xc7, 0xf3, 0x3d, 0xe0, 0x57, 0x75, 0xbe, 
	0xb4, 0x0e, 0x5b, 0xbe, 0x47, 0x4e, 0x9e, 0xbe, 0x74, 0xb7, 0x2e, 0x3e, 
	0x60, 0x4c, 0x10, 0x3d, 0x12, 0x04, 0xeb, 0xbd, 0x41, 0x10, 0x75, 0x3e, 
	0x5d, 0x74, 0x08, 0x3e, 0x86, 0xf6, 0x53, 0x3e, 0x00, 0x23, 0x0a, 0x3e, 
	0x50, 0xd4, 0xe5, 0xbd, 0x0f, 0x62, 0x89, 0x3e, 0x29, 0xa3, 0x69, 0x3e, 
	0x2e, 0x33, 0x7e, 0xbd, 0xfe, 0x97, 0x14, 0xbd, 0x63, 0xed, 0x31, 0xbe, 
	0xe0, 0xa3, 0x5b, 0x3c, 0x2f, 0xc0, 0x27, 0x3d, 0x07, 0xad, 0x88, 0x3e, 
	0x79, 0x7a, 0xa1, 0x3e, 0xb8, 0xd6, 0x9e, 0xbe, 0xbe, 0xdf, 0x61, 0xbd, 
	0x62, 0x35, 0x07, 0xbe, 0x6d, 0xcf, 0x62, 0x3e, 0x7c, 0xe1, 0x6d, 0x3d, 
	0xcb, 0x27, 0xde, 0x3d, 0x31, 0x7c, 0x78, 0x3e, 0x4b, 0x89, 0x15, 0xbe, 
	0xcd, 0x15, 0x95, 0x3e, 0x41, 0x6f, 0x96, 0xbe, 0x35, 0x78, 0x58, 0xbe, 
	0xac, 0x2c, 0xff, 0xbd, 0x79, 0x0b, 0x15, 0x3e, 0xef, 0x69, 0xfb, 0xbb, 
	0xa2, 0xf2, 0x8e, 0xbd, 0x68, 0x8c, 0x27, 0x3e, 0x5f, 0x40, 0x97, 0x3e, 
	0xaa, 0x8b, 0x9b, 0xbe, 0x68, 0x64, 0x5c, 0xbe, 0x13, 0xa8, 0x2a, 0x3e, 
	0xf7, 0xbb, 0x2f, 0xbe, 0x05, 0x04, 0xb1, 0x3d, 0xb6, 0xae, 0x10, 0x3d, 
	0x0f, 0x72, 0x9e, 0xbe, 0xd2, 0x53, 0x3b, 0xbb, 0xe8, 0x32, 0x61, 0x3e, 
	0x84, 0x49, 0x26, 0xbe, 0xc8, 0xb7, 0x75, 0x3d, 0x51, 0x52, 0x91, 0x3e, 
	0xbe, 0x91, 0x31, 0x3e, 0x98, 0xdd, 0xee, 0xbd, 0x7a, 0xe2, 0x8c, 0xbe, 
	0x9c, 0x30, 0x81, 0xbe, 0xd0, 0x46, 0x40, 0xbd, 0x15, 0x35, 0x95, 0xbe, 
	0x10, 0xe9, 0xb9, 0xbc, 0x0c, 0x2f, 0x05, 0xbe, 0x7a, 0x78, 0x3e, 0x3e, 
	0xb8, 0x90, 0x65, 0xbd, 0x68, 0xc6, 0x0e, 0xbd, 0x56, 0x8c, 0xdc, 0xbd, 
	0xb0, 0xd4, 0xfc, 0xbc, 0x4e, 0xf6, 0xbf, 0xbd, 0x36, 0xe9, 0x53, 0x3e, 
	0x8c, 0x13, 0x58, 0xbe, 0x45, 0xa6, 0x9b, 0xbe, 0x79, 0x4c, 0x72, 0xbe, 
	0xb5, 0xe8, 0x85, 0xbe, 0x8a, 0x3a, 0x9a, 0x3e, 0x58, 0xe2, 0xce, 0x3d, 
	0x50, 0x1f, 0x82, 0xbe, 0x0a, 0x66, 0x6e, 0xbe, 0x5f, 0x65, 0xa9, 0x3e, 
	0xab, 0x41, 0x2c, 0xbc, 0x39, 0x63, 0x0b, 0xbe, 0x86, 0x8c, 0x04, 0x3e, 
	0x00, 0xa7, 0x3a, 0xbc, 0x2d, 0x69, 0x71, 0x3e, 0x5c, 0x36, 0x1f, 0xbe, 
	0x90, 0xf8, 0x01, 0x3e, 0xb4, 0x8f, 0x8a, 0xbe, 0xfe, 0x79, 0x78, 0x3e, 
	0xce, 0x12, 0x1f, 0x3d, 0xc0, 0x11, 0x31, 0xbe, 0x26, 0x3c, 0x14, 0x3e, 
	0xe1, 0xb0, 0x6a, 0xbc, 0x96, 0x9e, 0xf4, 0xbd, 0x47, 0xef, 0x24, 0xbe, 
	0xee, 0xc3, 0x8a, 0xbe, 0x97, 0x65, 0x58, 0xbe, 0x26, 0x22, 0x59, 0x3e, 
	0x4f, 0xdd, 0x96, 0x3e, 0xd0, 0x5f, 0xda, 0xbd, 0x86, 0x87, 0x9d, 0xbe, 
	0x70, 0x6b, 0xa7, 0xbe, 0xc9, 0xd2, 0x9c, 0x3e, 0x90, 0x6d, 0xd5, 0x3d, 
	0x90, 0xe8, 0x30, 0x3e, 0xdf, 0x7b, 0x9f, 0x3e, 0xae, 0xc3, 0xbe, 0xbb, 
	0xbf, 0xee, 0x4a, 0xbe, 0xa1, 0xb2, 0x4a, 0xbd, 0x27, 0x90, 0x88, 0x3e, 
	0xd6, 0xe3, 0x84, 0x3e, 0xa9, 0xaa, 0x24, 0x3e, 0x68, 0x24, 0x4d, 0x3e, 
	0x0a, 0x4c, 0x72, 0x3e, 0x4e, 0xcc, 0x50, 0x3d, 0xfe, 0x4b, 0xc5, 0x3c, 
	0x16, 0xdb, 0x60, 0x3e, 0xb8, 0x50, 0xd7, 0x3d, 0x40, 0xd8, 0x21, 0xbd, 
	0x35, 0xf8, 0x0b, 0xbe, 0xf6, 0xb8, 0x6a, 0x3e, 0x86, 0x0d, 0xa0, 0xbc, 
	0x20, 0x12, 0xf8, 0xbc, 0x62, 0x57, 0x2b, 0x3e, 0x6f, 0xa0, 0x80, 0x3e, 
	0x0c, 0x7e, 0xf4, 0x3d, 0x47, 0x83, 0x26, 0x3e, 0xf2, 0x90, 0x58, 0x3e, 
	0x8b, 0x23, 0x00, 0x3e, 0xc5, 0x22, 0x8a, 0x3e, 0x71, 0xdf, 0x89, 0x3e, 
	0x71, 0xd2, 0x57, 0x3e, 0x59, 0x44, 0x6e, 0xbe, 0xd2, 0xc7, 0x15, 0x3e, 
	0xa8, 0x03, 0xa7, 0xbd, 0x48, 0xb8, 0x85, 0xbd, 0x6a, 0x91, 0x73, 0xbe, 
	0x50, 0x2c, 0x04, 0xbe, 0x7e, 0x7f, 0xaa, 0xbd, 0x58, 0x4a, 0x83, 0xbd, 
	0x2e, 0x56, 0x66, 0xbe, 0x1c, 0x7b, 0x99, 0x3d, 0x00, 0xf2, 0x7e, 0x3d, 
	0xea, 0x7b, 0xa0, 0xbe, 0xec, 0x77, 0xa9, 0x3d, 0x60, 0x21, 0x57, 0xbe, 
	0x0c, 0x78, 0x54, 0xbe, 0xd2, 0xa5, 0x10, 0x3e, 0x60, 0xdf, 0xda, 0x3d, 
	0xb0, 0x7b, 0x78, 0xbe, 0xd0, 0x18, 0x92, 0xbe, 0xc6, 0x8d, 0x52, 0x3e, 
	0x74, 0xf5, 0xe1, 0x3d, 0x5d, 0xf7, 0x98, 0xbe, 0xb0, 0xd6, 0x0d, 0xbd, 
	0x93, 0xba, 0x3b, 0xbe, 0xea, 0x91, 0x57, 0xbe, 0x1a, 0x89, 0x00, 0xbe, 
	0x1c, 0x98, 0x58, 0xbe, 0xa0, 0x72, 0x4d, 0xbc, 0xdf, 0xd2, 0x4f, 0xbe, 
	0x1c, 0xa3, 0x54, 0xbe, 0xb4, 0x35, 0x5f, 0xbe, 0xc2, 0x2e, 0xb4, 0xbd, 
	0xfe, 0x1c, 0x27, 0xbe, 0xe2, 0x8b, 0x42, 0x3e, 0x3d, 0x28, 0x8f, 0xbe, 
	0x04, 0x1b, 0x21, 0x3e, 0xa0, 0xe6, 0xc1, 0xbd, 0xc0, 0xe1, 0x83, 0xbc, 
	0x4c, 0x29, 0x8f, 0xbd, 0xe0, 0x55, 0x44, 0xbd, 0x3f, 0xf2, 0x3d, 0xbe, 
	0x7a, 0xa4, 0x7a, 0x3e, 0xca, 0xfe, 0xaf, 0xbd, 0xc8, 0xb6, 0x12, 0x3d, 
	0xb0, 0x24, 0x5d, 0x3d, 0x40, 0x7f, 0xdd, 0x3c, 0xba, 0x95, 0x83, 0xbe, 
	0x20, 0xcf, 0x34, 0x3e, 0xa0, 0x6f, 0x7b, 0xbe, 0xda, 0x24, 0xd0, 0xbd, 
	0xcc, 0x85, 0xe9, 0x3d, 0x50, 0x63, 0x8b, 0xbc, 0x05, 0x0a, 0x94, 0x3e, 
	0x3a, 0x69, 0x9b, 0xbe, 0xdc, 0xb6, 0xb1, 0x3d, 0x5a, 0x88, 0x9a, 0xbe, 
	0xc4, 0xc4, 0x90, 0xbe, 0x70, 0x31, 0x6b, 0xbd, 0xe4, 0x5f, 0x47, 0xbe, 
	0xd8, 0xe0, 0x62, 0xbe, 0xf2, 0x4b, 0x9f, 0xbd, 0x60, 0xb2, 0xd2, 0x3d, 
	0xc6, 0xd3, 0x0d, 0x3e, 0x81, 0xa3, 0x36, 0xbd, 0xc8, 0xbc, 0x4a, 0xbe, 
	0x2a, 0x90, 0x7c, 0xbe, 0xdf, 0x45, 0x92, 0x3e, 0x2a, 0xd8, 0x1b, 0x3e, 
	0x9e, 0x7a, 0x63, 0x3e, 0x71, 0xa9, 0x1a, 0xbe, 0xc0, 0x7a, 0x2d, 0x3c, 
	0x9e, 0x65, 0x36, 0x3e, 0x55, 0xd0, 0xac, 0x3d, 0x80, 0xee, 0x1a, 0x3c, 
	0x13, 0x81, 0xee, 0xbd, 0x16, 0x67, 0x46, 0x3e, 0xa4, 0x14, 0x09, 0x3e, 
	0x8c, 0x47, 0x2c, 0x3e, 0x75, 0x34, 0xa8, 0xbc, 0x50, 0xdf, 0x13, 0xbe, 
	0x2a, 0xdd, 0x88, 0x3e, 0x49, 0x2e, 0x1d, 0xbe, 0x78, 0x47, 0x94, 0xbd, 
	0x26, 0x7b, 0xa7, 0xbd, 0x4c, 0xef, 0xda, 0xbd, 0x78, 0xbe, 0x33, 0x3d, 
	0xd1, 0x98, 0x17, 0xbe, 0x2b, 0x89, 0x52, 0xbe, 0x7e, 0x83, 0x38, 0x3e, 
	0x50, 0x6a, 0x6b, 0xbe, 0x80, 0x41, 0xce, 0xbd, 0x42, 0xdb, 0x74, 0x3e, 
	0x0b, 0x03, 0x99, 0xbe, 0xd9, 0xd9, 0x05, 0xbe, 0x9e, 0x05, 0x55, 0xbe, 
	0x50, 0xaf, 0xf5, 0xbc, 0xe1, 0x83, 0x89, 0xbe, 0x5e, 0x90, 0x75, 0x3e, 
	0x8c, 0x3a, 0x12, 0x3e, 0x82, 0x5e, 0x59, 0x3e, 0x84, 0x06, 0x95, 0x3d, 
	0xb8, 0xfd, 0x07, 0xbe, 0xc5, 0x73, 0xdb, 0x3d, 0x1c, 0x56, 0x8a, 0xbd, 
	0xda, 0x01, 0x63, 0x3e, 0x11, 0x3f, 0xa1, 0xbe, 0x80, 0x2d, 0xaa, 0x3b, 
	0xf2, 0x6b, 0x73, 0xbc, 0x20, 0xb1, 0x2e, 0xbe, 0xd3, 0x01, 0x61, 0xbe, 
	0xe8, 0x03, 0xaf, 0x3d, 0xaa, 0x61, 0x59, 0xbe, 0xed, 0xf4, 0xff, 0x3d, 
	0x00, 0xfc, 0x0d, 0x3a, 0x63, 0x9e, 0xdf, 0x3d, 0x78, 0xba, 0xbf, 0x3d, 
	0x41, 0x68, 0x64, 0x3a, 0x7a, 0xde, 0x80, 0xbd, 0xe6, 0xf0, 0x69, 0x3b, 
	0xd6, 0xb0, 0x8a, 0x3e, 0x7f, 0xca, 0x18, 0x3e, 0x10, 0xee, 0x50, 0xbd, 
	0x9e, 0xd1, 0x44, 0x3e, 0x26, 0x8a, 0x5e, 0x3e, 0xaa, 0xdd, 0x9a, 0xbe, 
	0xc8, 0x58, 0x4e, 0xbe, 0x95, 0x9b, 0x96, 0x3e, 0x94, 0x7f, 0x0b, 0x3e, 
	0x0a, 0x59, 0xa1, 0xbd, 0xb4, 0x4e, 0x81, 0xbe, 0x33, 0x8c, 0x9e, 0xbe, 
	0xef, 0x9e, 0x09, 0xbe, 0x70, 0xf7, 0x82, 0xbe, 0x42, 0x59, 0x18, 0xbe, 
	0x30, 0x1f, 0xee, 0xbd, 0x4a, 0x30, 0x18, 0x3e, 0x39, 0x16, 0x8a, 0xbe, 
	0xbd, 0x34, 0x92, 0x3e, 0x0d, 0x33, 0x81, 0x3e, 0xf7, 0x59, 0x41, 0xbe, 
	0xa4, 0xa7, 0xd4, 0x3d, 0x0a, 0x8c, 0x8f, 0x3e, 0x26, 0xe4, 0xf0, 0xbc, 
	0xa5, 0x39, 0x90, 0x3e, 0xb8, 0xaa, 0x86, 0xbd, 0xed, 0x07, 0x99, 0x3e, 
	0x40, 0x5c, 0x5f, 0xbc, 0xb9, 0xda, 0x10, 0x3e, 0x0e, 0xa4, 0x69, 0xbe, 
	0xee, 0xb0, 0x88, 0xbc, 0x30, 0x0d, 0x15, 0xbe, 0x88, 0x91, 0x9a, 0xbe, 
	0x0d, 0xdb, 0x12, 0x3e, 0x48, 0x90, 0xf6, 0x3d, 0x31, 0xc9, 0x9b, 0x3d, 
	0xd0, 0x92, 0xd6, 0x3c, 0xbf, 0xd7, 0x7b, 0xbb, 0x4d, 0x20, 0x42, 0x3e, 
	0x3e, 0x23, 0x88, 0x3e, 0xee, 0x14, 0xd5, 0x3c, 0xa1, 0xd1, 0xa7, 0x3c, 
	0x2a, 0xed, 0xfd, 0xbd, 0xad, 0x77, 0x9d, 0x3e, 0x8c, 0xc0, 0xa8, 0xbd, 
	0x1e, 0x5c, 0x2d, 0xbe, 0x50, 0x98, 0xab, 0x3c, 0xe0, 0x5f, 0x34, 0xbc, 
	0x60, 0xdd, 0xa2, 0xbc, 0xe7, 0x04, 0x0e, 0xbe, 0x52, 0xbb, 0x1d, 0x3e, 
	0x54, 0x56, 0x2d, 0x3e, 0x74, 0x34, 0xeb, 0xbd, 0xa7, 0xf3, 0x99, 0xbe, 
	0x1a, 0xc9, 0x5e, 0xbe, 0xaf, 0x3a, 0x96, 0xbe, 0x22, 0x9f, 0xc6, 0xbd, 
	0x36, 0x5c, 0x3d, 0x3e, 0xab, 0xd3, 0x09, 0xbe, 0xd4, 0x72, 0x27, 0x3e, 
	0x8a, 0x6a, 0x50, 0xbe, 0xe4, 0xbd, 0x4a, 0xbe, 0xa7, 0xed, 0xcd, 0x3d, 
	0xb2, 0xbf, 0xb9, 0x3d, 0xc6, 0x6e, 0x50, 0x3c, 0x03, 0x99, 0x27, 0xbe, 
	0x20, 0x00, 0x05, 0x3e, 0x46, 0x6f, 0x55, 0x3e, 0xa1, 0xb3, 0x6d, 0x3e, 
	0x39, 0xc2, 0x63, 0xbd, 0xf2, 0x77, 0x89, 0x3d, 0xa0, 0xcd, 0x62, 0x3d, 
	0x36, 0x32, 0x70, 0xbe, 0x77, 0xaf, 0x3c, 0x3e, 0x3e, 0x71, 0x78, 0x3e, 
	0x60, 0x54, 0x4b, 0xbe, 0x38, 0x4a, 0x86, 0xbe, 0x4d, 0x67, 0x3e, 0xbc, 
	0x91, 0xa1, 0xc8, 0x3d, 0x75, 0x6e, 0x0c, 0x3e, 0x92, 0x51, 0x6d, 0xbe, 
	0x4a, 0xa3, 0xbc, 0xbd, 0x10, 0x35, 0xde, 0xbd, 0x10, 0x1b, 0xfb, 0x3d, 
	0x75, 0x6a, 0x85, 0xbe, 0xab, 0x93, 0x2c, 0xbe, 0xc7, 0xd7, 0x86, 0xbe, 
	0xc2, 0x84, 0x11, 0xbe, 0x00, 0xd6, 0x3b, 0xba, 0x08, 0x7f, 0x85, 0xbe, 
	0xf8, 0x16, 0x32, 0x3e, 0x5e, 0x74, 0x41, 0x3e, 0x7d, 0x3c, 0xa1, 0x3e, 
	0x48, 0xe6, 0xe9, 0x3d, 0xde, 0xd8, 0x8a, 0xbd, 0x33, 0x52, 0x99, 0xbe, 
	0x46, 0xdb, 0x4d, 0x3e, 0xd9, 0x6c, 0x3c, 0xbe, 0xd6, 0xc8, 0x70, 0x3e, 
	0x50, 0x5d, 0x09, 0xbd, 0xd2, 0x83, 0x8b, 0xbe, 0x87, 0x8a, 0x14, 0xbe, 
	0x84, 0xbf, 0x8a, 0x3e, 0xef, 0x71, 0x54, 0x3e, 0x03, 0x5c, 0x06, 0xbd, 
	0x68, 0x44, 0x83, 0xbe, 0x54, 0xe2, 0x92, 0xbd, 0x50, 0x2c, 0xb6, 0x3c, 
	0x3e, 0xba, 0x9f, 0x3e, 0x0d, 0x8b, 0xa1, 0x3e, 0x33, 0x3b, 0x7f, 0x3e, 
	0x4e, 0xf8, 0x7b, 0x3e, 0xb4, 0xaa, 0x87, 0xbd, 0x9b, 0x66, 0xcc, 0xbd, 
	0xa6, 0x7e, 0x8f, 0xbe, 0xa2, 0xc2, 0x80, 0x3e, 0xda, 0xbd, 0x07, 0x3e, 
	0xb3, 0x76, 0x7b, 0xbe, 0xa4, 0xbc, 0x55, 0xbe, 0xdb, 0x59, 0x1e, 0x3e, 
	0x87, 0xce, 0x36, 0x3e, 0xc7, 0xa8, 0xe2, 0xbc, 0x4a, 0x32, 0x1c, 0xbe, 
	0x64, 0xbf, 0x53, 0xbe, 0x98, 0x75, 0x3a, 0x3e, 0x32, 0xb3, 0x77, 0x3e, 
	0x8f, 0x58, 0x9d, 0xbe, 0x2c, 0xc3, 0xd5, 0x3d, 0xa8, 0x22, 0x26, 0x3d, 
	0xe1, 0x4d, 0x96, 0x3e, 0xf5, 0x83, 0x6a, 0xbc, 0xc4, 0x98, 0x8f, 0xbd, 
	0x00, 0x6b, 0x74, 0xbe, 0xca, 0x8f, 0x21, 0x3e, 0x65, 0x49, 0x9f, 0x3e, 
	0xbf, 0xdb, 0x3f, 0xbe, 0xd0, 0x79, 0x39, 0x3e, 0x1b, 0x38, 0x41, 0x3d, 
	0x7f, 0x24, 0x60, 0x3e, 0x83, 0x89, 0x55, 0xbe, 0x64, 0xe9, 0x8c, 0x3d, 
	0x00, 0xb0, 0xb3, 0x3c, 0x57, 0xcb, 0x97, 0x3c, 0x35, 0x3f, 0x58, 0x3e, 
	0x68, 0x1d, 0x89, 0xbe, 0x40, 0x26, 0x0a, 0xbc, 0x82, 0xef, 0x6e, 0x3e, 
	0x00, 0x2b, 0x2d, 0x3e, 0x22, 0xed, 0x5a, 0x3e, 0x85, 0x34, 0x64, 0x3e, 
	0x9c, 0x47, 0xac, 0xbd, 0x9c, 0x99, 0x7f, 0xbe, 0x80, 0x33, 0xac, 0x3b, 
	0x13, 0x5e, 0x25, 0x3e, 0xe6, 0xd9, 0x44, 0x3e, 0x1a, 0x69, 0x9b, 0x3e, 
	0x60, 0x14, 0x94, 0xbe, 0x2b, 0x3c, 0xd3, 0x3c, 0xb4, 0x57, 0x0a, 0xbe, 
	0x42, 0xad, 0x8d, 0xbe, 0x0e, 0x2d, 0x81, 0x3e, 0x88, 0x1f, 0xef, 0x3c, 
	0x2e, 0xfa, 0xff, 0xff, 0x04, 0x00, 0x00, 0x00, 0x10, 0x04, 0x00, 0x00, 
	0x8c, 0xe3, 0xcf, 0xbe, 0xe1, 0xc5, 0x63, 0xbd, 0xe3, 0xcc, 0x17, 0x3e, 
	0x78, 0x75, 0x71, 0x3e, 0x65, 0x4d, 0x8d, 0xbe, 0x7f, 0x77, 0xa5, 0x3e, 
	0x68, 0x90, 0xb1, 0xbe, 0x1d, 0xe2, 0xb0, 0x3e, 0x9f, 0xfc, 0x3d, 0x3e, 
	0x9d, 0x55, 0x41, 0x3e, 0x28, 0xab, 0x1e, 0xbd, 0x54, 0xd8, 0x34, 0xbd, 
	0x9f, 0xcb, 0xf0, 0x3d, 0x6d, 0x74, 0xba, 0x3e, 0x81, 0x64, 0x8a, 0x3e, 
	0x7a, 0x0f, 0x18, 0x3e, 0x77, 0x12, 0xa0, 0x3e, 0x10, 0xae, 0x37, 0x3e, 
	0xe7, 0x08, 0xb8, 0x3e, 0x05, 0xb6, 0x8c, 0xbd, 0xea, 0x14, 0x61, 0xbd, 
	0xfa, 0x98, 0xf6, 0xbe, 0x9e, 0xc6, 0x06, 0x3c, 0x9b, 0xe3, 0xa2, 0xbe, 
	0x6b, 0x3b, 0x53, 0xbe, 0xbc, 0xbd, 0x45, 0x3e, 0xc2, 0xd1, 0xb8, 0x3b, 
	0xbe, 0x51, 0x0a, 0x3e, 0x42, 0x4d, 0xf4, 0xbe, 0xdb, 0x87, 0xc4, 0xbc, 
	0x6e, 0xd4, 0x20, 0x3b, 0xb1, 0x79, 0xcb, 0x3e, 0xe8, 0xf2, 0xb8, 0x3e, 
	0x1f, 0xa6, 0x1e, 0x3e, 0xd3, 0xc5, 0xcd, 0xbd, 0xb4, 0xe4, 0xdf, 0xbe, 
	0xa8, 0xd5, 0x9e, 0x3e, 0x48, 0xd8, 0xc2, 0x3a, 0x60, 0x15, 0x72, 0x3e, 
	0xc4, 0xf3, 0xed, 0xbd, 0xc6, 0x38, 0x88, 0xbe, 0xac, 0x8f, 0x9b, 0x3e, 
	0xa0, 0x96, 0x12, 0x3e, 0x60, 0x89, 0x97, 0x3e, 0x08, 0xa8, 0x7f, 0x3d, 
	0x30, 0xac, 0xc3, 0x3d, 0x66, 0x22, 0x03, 0xbe, 0x18, 0x8b, 0x36, 0x3e, 
	0x73, 0xbe, 0x37, 0xbe, 0xc0, 0xb6, 0x9e, 0x3e, 0x00, 0x27, 0xf7, 0x3d, 
	0xe5, 0x65, 0xbc, 0xbe, 0xc6, 0x46, 0xd5, 0x3e, 0xb2, 0xa1, 0x99, 0xbe, 
	0xe0, 0xbb, 0xca, 0x3c, 0xbc, 0x06, 0x22, 0xbe, 0x5c, 0xb5, 0x85, 0xbe, 
	0x1d, 0xf9, 0xc2, 0xbe, 0xb8, 0x01, 0x9f, 0xbd, 0x00, 0xcf, 0xc6, 0xba, 
	0x30, 0x11, 0xf6, 0xbd, 0xaa, 0x52, 0x8b, 0x3e, 0x2e, 0xf8, 0xbd, 0x3e, 
	0x0c, 0xba, 0x14, 0xbe, 0x5e, 0x6c, 0x82, 0xbe, 0x5a, 0xae, 0xbb, 0x3e, 
	0x40, 0xee, 0x18, 0x3d, 0x98, 0x1f, 0x42, 0xbd, 0x75, 0x82, 0xa3, 0xbe, 
	0xfa, 0x9b, 0x07, 0xbe, 0x9b, 0x85, 0x39, 0xbe, 0x16, 0x0b, 0x9e, 0x3e, 
	0xc4, 0x95, 0x4c, 0x3e, 0x5c, 0xe0, 0xa8, 0xbd, 0x7c, 0xc0, 0x04, 0xbe, 
	0xe4, 0x38, 0x91, 0x3e, 0x40, 0x06, 0xd2, 0x3c, 0x85, 0x4c, 0x5a, 0xbe, 
	0xff, 0xeb, 0x48, 0xbe, 0xfc, 0xae, 0x97, 0xbe, 0x39, 0xe5, 0x40, 0xbe, 
	0xd1, 0x75, 0x0d, 0xbd, 0x8f, 0x32, 0x53, 0xbe, 0xe0, 0xcf, 0x46, 0x3e, 
	0x63, 0xab, 0x90, 0xbe, 0x99, 0x76, 0x21, 0xbe, 0x5f, 0x5e, 0xb1, 0x3e, 
	0xfb, 0x8f, 0xa5, 0x3e, 0xed, 0x68, 0xc7, 0xbe, 0x68, 0x7e, 0xf3, 0xbd, 
	0x46, 0x52, 0x86, 0x3d, 0x75, 0xd6, 0xcf, 0x3e, 0x70, 0x68, 0x12, 0xbd, 
	0xfa, 0x7a, 0x71, 0xbe, 0x02, 0x99, 0x88, 0x3e, 0xf5, 0x5c, 0x28, 0xbd, 
	0x8f, 0xf7, 0x81, 0x3e, 0x90, 0xaf, 0x27, 0xbd, 0x7c, 0xad, 0x80, 0x3e, 
	0x1a, 0x4b, 0xae, 0xbb, 0x17, 0x18, 0xbf, 0xbc, 0xd4, 0x33, 0xe2, 0xbd, 
	0x9f, 0x4d, 0x0e, 0x3e, 0x37, 0x2e, 0x1a, 0x3e, 0xa4, 0x3c, 0x31, 0xbe, 
	0x71, 0x43, 0xac, 0xbe, 0xa1, 0x3f, 0xa3, 0x3e, 0xc1, 0xa5, 0xf8, 0xbe, 
	0x7e, 0x16, 0x9c, 0x3e, 0x24, 0xd8, 0xbe, 0xbe, 0x47, 0x54, 0xde, 0x3e, 
	0xc1, 0x4a, 0xdd, 0xbe, 0x47, 0x0e, 0xcd, 0x3e, 0x2e, 0xb7, 0xf2, 0xbd, 
	0x90, 0xc0, 0xcf, 0xbe, 0x87, 0xcb, 0xd0, 0xbe, 0x6d, 0x01, 0x74, 0x3e, 
	0xb2, 0x90, 0xad, 0xbe, 0xae, 0x05, 0x2e, 0xbe, 0x8a, 0x24, 0xc7, 0x3e, 
	0x80, 0x08, 0x0a, 0x3e, 0x20, 0x87, 0x3c, 0xbe, 0x24, 0xc9, 0x9c, 0x3e, 
	0x38, 0xe9, 0x68, 0xbd, 0xf0, 0xf3, 0xcf, 0x3d, 0x30, 0x2f, 0x6c, 0x3d, 
	0x26, 0xd4, 0x8d, 0xbe, 0xa0, 0x9f, 0xc4, 0x3c, 0x02, 0xea, 0x05, 0xbe, 
	0x12, 0x2a, 0xd4, 0xbe, 0xa0, 0x12, 0x2c, 0x3c, 0xee, 0x36, 0xa1, 0x3e, 
	0x68, 0x01, 0x14, 0xbd, 0x66, 0x05, 0x64, 0xbe, 0xd8, 0x44, 0x17, 0x3e, 
	0x38, 0x63, 0x89, 0x3e, 0xa2, 0x09, 0x1d, 0xbe, 0x72, 0x3f, 0x91, 0xbe, 
	0xc0, 0x93, 0x07, 0x3e, 0x48, 0x8d, 0x41, 0x3e, 0x66, 0x4e, 0x83, 0xbe, 
	0x5a, 0x4c, 0x8d, 0x3e, 0x60, 0xa8, 0x0f, 0xbe, 0x83, 0x40, 0xb7, 0xbe, 
	0xd4, 0xe4, 0x83, 0x3e, 0xb9, 0xd5, 0x49, 0xbe, 0x52, 0x46, 0xbf, 0x3e, 
	0xfd, 0x2e, 0x82, 0x3e, 0xa0, 0xfb, 0xb5, 0x3e, 0xf6, 0x2b, 0x2a, 0x3d, 
	0x9e, 0x34, 0xce, 0xbd, 0x53, 0xa7, 0xb4, 0x3e, 0x1b, 0xf0, 0x8d, 0xbe, 
	0xf5, 0x69, 0x8b, 0xbc, 0x56, 0x78, 0x17, 0xbc, 0x2c, 0xda, 0xa2, 0x3e, 
	0x3c, 0x55, 0x94, 0xbe, 0xac, 0xc9, 0x96, 0x3e, 0xd6, 0x7e, 0x95, 0x3e, 
	0x72, 0xf4, 0xa9, 0x3e, 0xcc, 0xe2, 0x98, 0xbd, 0x78, 0xf6, 0x7d, 0x3e, 
	0x44, 0x47, 0x36, 0x3e, 0x02, 0x2f, 0xbf, 0x3e, 0xd1, 0x85, 0x5a, 0xbe, 
	0x00, 0x40, 0x9e, 0x3a, 0xb7, 0x58, 0xba, 0xbe, 0xf0, 0x4f, 0x9d, 0xbe, 
	0x50, 0x58, 0x9b, 0xbc, 0x22, 0x9d, 0xe4, 0xbd, 0xfe, 0x09, 0xa0, 0x3d, 
	0xbb, 0xe5, 0xd9, 0xbd, 0xc4, 0x7e, 0xcd, 0xbe, 0xd8, 0xd6, 0xd8, 0x3d, 
	0xce, 0x6f, 0x06, 0x3e, 0x36, 0x89, 0x6e, 0x3e, 0xa0, 0xa0, 0x90, 0xbe, 
	0xce, 0xb8, 0xa9, 0xbe, 0x68, 0x45, 0x31, 0xbd, 0xbb, 0xaa, 0xef, 0xbe, 
	0x22, 0x15, 0xbe, 0xbe, 0x1a, 0xc7, 0xd5, 0x3e, 0x24, 0xc5, 0xbd, 0x3e, 
	0xcf, 0x03, 0x9c, 0xbe, 0x54, 0x5b, 0x74, 0x3e, 0x10, 0xa3, 0x3e, 0x3e, 
	0x60, 0xd7, 0xfe, 0x3d, 0x28, 0xbb, 0x05, 0xbe, 0x84, 0x5b, 0xd0, 0xbe, 
	0xea, 0x44, 0x06, 0xbe, 0x10, 0x11, 0x97, 0xbe, 0x88, 0x4e, 0xba, 0xbe, 
	0x10, 0x93, 0xa4, 0x3e, 0x20, 0x3f, 0xf2, 0x3d, 0x99, 0x56, 0x9c, 0xbe, 
	0x95, 0x97, 0x15, 0x3e, 0x38, 0xa2, 0x7a, 0x3e, 0x93, 0x26, 0x91, 0x3d, 
	0x89, 0x83, 0xa2, 0xbe, 0x1f, 0x19, 0xc8, 0x3e, 0xee, 0x17, 0xcf, 0xbe, 
	0xa9, 0x0d, 0x3b, 0xbe, 0xf3, 0x55, 0xa9, 0xbd, 0x09, 0x2a, 0x0a, 0x3e, 
	0x89, 0xb8, 0x52, 0xbd, 0x4b, 0x39, 0x87, 0x3d, 0x52, 0xda, 0xba, 0x3e, 
	0x79, 0x0d, 0xc3, 0x3e, 0x22, 0xe6, 0xbb, 0x3e, 0xf6, 0xcb, 0x45, 0xbe, 
	0x2e, 0x79, 0xcc, 0xbe, 0x2b, 0x7e, 0x8d, 0x3d, 0xb9, 0x18, 0x4b, 0xbe, 
	0x9d, 0xdd, 0xa2, 0xbd, 0x64, 0x72, 0xf1, 0xbd, 0x4b, 0xc6, 0xcf, 0xbd, 
	0x2a, 0xdd, 0x33, 0x3e, 0xc0, 0x5f, 0xa2, 0xbe, 0xfd, 0xf6, 0x66, 0x3e, 
	0xe8, 0x0f, 0x59, 0x3c, 0x77, 0x07, 0xbd, 0x3e, 0xdc, 0xcf, 0xdf, 0xbd, 
	0x5c, 0x2a, 0x90, 0xbe, 0x5e, 0x44, 0xd4, 0xbd, 0x2a, 0x45, 0xef, 0xbd, 
	0x6b, 0x34, 0x40, 0xbd, 0x95, 0x60, 0x7a, 0x3d, 0xfd, 0x29, 0x9b, 0xbe, 
	0xdc, 0x65, 0xbe, 0xbe, 0x47, 0x30, 0xb9, 0x3d, 0xec, 0xb5, 0x57, 0xbd, 
	0x10, 0xe9, 0xdc, 0x3d, 0x8b, 0x12, 0x81, 0xbd, 0x54, 0x20, 0xb5, 0x3e, 
	0x43, 0x9c, 0xa6, 0xbe, 0x37, 0x7f, 0x94, 0x3e, 0x92, 0x91, 0xba, 0x3e, 
	0xd2, 0x9f, 0x1a, 0xbe, 0x27, 0x6e, 0xfd, 0x3d, 0x3c, 0x14, 0xa2, 0xbe, 
	0xb9, 0x91, 0x1c, 0x3e, 0x93, 0x1c, 0x8a, 0xbe, 0x9f, 0x52, 0x1a, 0x3d, 
	0x1e, 0x82, 0x2c, 0x3e, 0x8a, 0x70, 0xa0, 0xbe, 0x56, 0x30, 0x4b, 0xbe, 
	0xf8, 0xd4, 0x43, 0x3e, 0x55, 0xfa, 0xb3, 0xbe, 0x9e, 0x20, 0xc1, 0x3e, 
	0xdb, 0x97, 0xbd, 0xbe, 0x67, 0x40, 0x69, 0x3e, 0xa6, 0x8a, 0x33, 0x3e, 
	0xfe, 0x8f, 0x1a, 0x3c, 0x11, 0xaf, 0xdc, 0xbe, 0x46, 0x5f, 0xfb, 0x3e, 
	0x4d, 0x83, 0xbf, 0xbe, 0xcb, 0x93, 0x22, 0x3e, 0xa2, 0x01, 0xbd, 0x3e, 
	0xc1, 0x90, 0xaa, 0xbe, 0xd2, 0xa4, 0x1c, 0x3e, 0x4a, 0xfe, 0xff, 0xff, 
	0x04, 0x00, 0x00, 0x00, 0x50, 0x00, 0x00, 0x00, 0x58, 0xfa, 0x20, 0xbb, 
	0x01, 0x83, 0x3f, 0xbc, 0x54, 0x84, 0x3e, 0xbd, 0x00, 0x00, 0x00, 0x00, 
	0x00, 0x00, 0x00, 0x00, 0x00, 0x00, 0x00, 0x00, 0x2f, 0x1a, 0x18, 0x3b, 
	0x3a, 0x8e, 0x69, 0x3b, 0x18, 0xf7, 0x52, 0xbd, 0x00, 0x00, 0x00, 0x00, 
	0x00, 0x00, 0x00, 0x00, 0x6a, 0xca, 0xbb, 0xbc, 0x00, 0x00, 0x00, 0x00, 
	0x31, 0x7c, 0xf6, 0x3b, 0x00, 0x00, 0x00, 0x00, 0x90, 0xeb, 0x67, 0xbc, 
	0x7e, 0xac, 0x44, 0x3a, 0xae, 0x8d, 0xfa, 0xbc, 0x98, 0x58, 0x7a, 0x3b, 
	0xf9, 0xda, 0x25, 0x3d, 0xa6, 0xfe, 0xff, 0xff, 0x04, 0x00, 0x00, 0x00, 
	0x0c, 0x00, 0x00, 0x00, 0x9e, 0x33, 0x37, 0xbb, 0x92, 0x4d, 0x94, 0xbc, 
	0xd1, 0x43, 0x31, 0x3d, 0xbe, 0xfe, 0xff, 0xff, 0x04, 0x00, 0x00, 0x00, 
	0xa0, 0x00, 0x00, 0x00, 0x62, 0x24, 0x51, 0x3d, 0x00, 0x00, 0x00, 0x00, 
	0x00, 0x00, 0x00, 0x00, 0x51, 0x97, 0x6d, 0x3c, 0x00, 0x00, 0x00, 0x00, 
	0x00, 0x00, 0x00, 0x00, 0x8a, 0x67, 0xf4, 0xbc, 0x30, 0x4b, 0xa3, 0x3b, 
	0x00, 0x00, 0x00, 0x00, 0x0f, 0x16, 0xf9, 0x3b, 0x45, 0x4f, 0x07, 0xbd, 
	0xd2, 0x5d, 0x06, 0xbd, 0x92, 0x54, 0x06, 0x3c, 0x00, 0x00, 0x00, 0x00, 
	0x00, 0x00, 0x00, 0x00, 0x96, 0xe4, 0xbd, 0xbc, 0x7b, 0x5c, 0xaa, 0xbc, 
	0x00, 0x00, 0x00, 0x00, 0x34, 0x54, 0x67, 0xbb, 0x00, 0x00, 0x00, 0x00, 
	0xed, 0x15, 0xc5, 0xbb, 0x82, 0xc8, 0x3c, 0xbc, 0x00, 0x00, 0x00, 0x00, 
	0x40, 0x29, 0xa6, 0x3b, 0x95, 0xb4, 0x62, 0xbc, 0xc7, 0xdf, 0xc8, 0xba, 
	0x00, 0x00, 0x00, 0x00, 0x00, 0x00, 0x00, 0x00, 0x00, 0x00, 0x00, 0x00, 
	0x08, 0xdd, 0x39, 0xbc, 0x00, 0x00, 0x00, 0x00, 0x89, 0xb2, 0x26, 0x3d, 
	0x00, 0x00, 0x00, 0x00, 0x77, 0x15, 0xfa, 0x3b, 0x00, 0x00, 0x00, 0x00, 
	0xb1, 0x34, 0x29, 0x3b, 0x00, 0x00, 0x00, 0x00, 0x72, 0x0a, 0x4e, 0x3a, 
	0xaa, 0x0b, 0x4c, 0xbd, 0x81, 0xa4, 0x55, 0x3c, 0x5c, 0xfa, 0xff, 0xff, 
	0x60, 0xfa, 0xff, 0xff, 0x0f, 0x00, 0x00, 0x00, 0x4d, 0x4c, 0x49, 0x52, 
	0x20, 0x43, 0x6f, 0x6e, 0x76, 0x65, 0x72, 0x74, 0x65, 0x64, 0x2e, 0x00, 
	0x01, 0x00, 0x00, 0x00, 0x14, 0x00, 0x00, 0x00, 0x00, 0x00, 0x0e, 0x00, 
	0x18, 0x00, 0x14, 0x00, 0x10, 0x00, 0x0c, 0x00, 0x08, 0x00, 0x04, 0x00, 
	0x0e, 0x00, 0x00, 0x00, 0x14, 0x00, 0x00, 0x00, 0x1c, 0x00, 0x00, 0x00, 
	0x24, 0x01, 0x00, 0x00, 0x28, 0x01, 0x00, 0x00, 0x2c, 0x01, 0x00, 0x00, 
	0x04, 0x00, 0x00, 0x00, 0x6d, 0x61, 0x69, 0x6e, 0x00, 0x00, 0x00, 0x00, 
	0x04, 0x00, 0x00, 0x00, 0xcc, 0x00, 0x00, 0x00, 0x84, 0x00, 0x00, 0x00, 
	0x50, 0x00, 0x00, 0x00, 0x14, 0x00, 0x00, 0x00, 0x00, 0x00, 0x0e, 0x00, 
	0x1a, 0x00, 0x14, 0x00, 0x10, 0x00, 0x0c, 0x00, 0x0b, 0x00, 0x04, 0x00, 
	0x0e, 0x00, 0x00, 0x00, 0x1c, 0x00, 0x00, 0x00, 0x00, 0x00, 0x00, 0x09, 
	0x1c, 0x00, 0x00, 0x00, 0x20, 0x00, 0x00, 0x00, 0x01, 0x00, 0x00, 0x00, 
	0x00, 0x00, 0x06, 0x00, 0x08, 0x00, 0x04, 0x00, 0x06, 0x00, 0x00, 0x00, 
	0x00, 0x00, 0x80, 0x3f, 0x01, 0x00, 0x00, 0x00, 0x0a, 0x00, 0x00, 0x00, 
	0x01, 0x00, 0x00, 0x00, 0x09, 0x00, 0x00, 0x00, 0x9a, 0xff, 0xff, 0xff, 
	0x10, 0x00, 0x00, 0x00, 0x00, 0x00, 0x00, 0x08, 0x0c, 0x00, 0x00, 0x00, 
	0x10, 0x00, 0x00, 0x00, 0x24, 0xfb, 0xff, 0xff, 0x01, 0x00, 0x00, 0x00, 
	0x09, 0x00, 0x00, 0x00, 0x03, 0x00, 0x00, 0x00, 0x08, 0x00, 0x00, 0x00, 
	0x06, 0x00, 0x00, 0x00, 0x02, 0x00, 0x00, 0x00, 0xca, 0xff, 0xff, 0xff, 
	0x10, 0x00, 0x00, 0x00, 0x00, 0x00, 0x00, 0x08, 0x10, 0x00, 0x00, 0x00, 
	0x14, 0x00, 0x00, 0x00, 0xba, 0xff, 0xff, 0xff, 0x00, 0x00, 0x00, 0x01, 
	0x01, 0x00, 0x00, 0x00, 0x08, 0x00, 0x00, 0x00, 0x03, 0x00, 0x00, 0x00, 
	0x07, 0x00, 0x00, 0x00, 0x05, 0x00, 0x00, 0x00, 0x01, 0x00, 0x00, 0x00, 
	0x00, 0x00, 0x0e, 0x00, 0x16, 0x00, 0x00, 0x00, 0x10, 0x00, 0x0c, 0x00, 
	0x0b, 0x00, 0x04, 0x00, 0x0e, 0x00, 0x00, 0x00, 0x18, 0x00, 0x00, 0x00, 
	0x00, 0x00, 0x00, 0x08, 0x18, 0x00, 0x00, 0x00, 0x1c, 0x00, 0x00, 0x00, 
	0x00, 0x00, 0x06, 0x00, 0x08, 0x00, 0x07, 0x00, 0x06, 0x00, 0x00, 0x00, 
	0x00, 0x00, 0x00, 0x01, 0x01, 0x00, 0x00, 0x00, 0x07, 0x00, 0x00, 0x00, 
	0x03, 0x00, 0x00, 0x00, 0x00, 0x00, 0x00, 0x00, 0x04, 0x00, 0x00, 0x00, 
	0x03, 0x00, 0x00, 0x00, 0x01, 0x00, 0x00, 0x00, 0x0a, 0x00, 0x00, 0x00, 
	0x01, 0x00, 0x00, 0x00, 0x00, 0x00, 0x00, 0x00, 0x0b, 0x00, 0x00, 0x00, 
	0x04, 0x04, 0x00, 0x00, 0x94, 0x03, 0x00, 0x00, 0x24, 0x03, 0x00, 0x00, 
	0xd0, 0x02, 0x00, 0x00, 0x88, 0x02, 0x00, 0x00, 0x3c, 0x02, 0x00, 0x00, 
	0xf0, 0x01, 0x00, 0x00, 0x68, 0x01, 0x00, 0x00, 0xd8, 0x00, 0x00, 0x00, 
	0x60, 0x00, 0x00, 0x00, 0x04, 0x00, 0x00, 0x00, 0x3e, 0xfc, 0xff, 0xff, 
	0x00, 0x00, 0x00, 0x01, 0x14, 0x00, 0x00, 0x00, 0x1c, 0x00, 0x00, 0x00, 
	0x1c, 0x00, 0x00, 0x00, 0x0b, 0x00, 0x00, 0x00, 0x34, 0x00, 0x00, 0x00, 
	0x02, 0x00, 0x00, 0x00, 0xff, 0xff, 0xff, 0xff, 0x03, 0x00, 0x00, 0x00, 
	0x28, 0xfc, 0xff, 0xff, 0x19, 0x00, 0x00, 0x00, 0x53, 0x74, 0x61, 0x74, 
	0x65, 0x66, 0x75, 0x6c, 0x50, 0x61, 0x72, 0x74, 0x69, 0x74, 0x69, 0x6f, 
	0x6e, 0x65, 0x64, 0x43, 0x61, 0x6c, 0x6c, 0x3a, 0x30, 0x00, 0x00, 0x00, 
	0x02, 0x00, 0x00, 0x00, 0x01, 0x00, 0x00, 0x00, 0x03, 0x00, 0x00, 0x00, 
	0x96, 0xfc, 0xff, 0xff, 0x00, 0x00, 0x00, 0x01, 0x14, 0x00, 0x00, 0x00, 
	0x1c, 0x00, 0x00, 0x00, 0x1c, 0x00, 0x00, 0x00, 0x0a, 0x00, 0x00, 0x00, 
	0x50, 0x00, 0x00, 0x00, 0x02, 0x00, 0x00, 0x00, 0xff, 0xff, 0xff, 0xff, 
	0x03, 0x00, 0x00, 0x00, 0x80, 0xfc, 0xff, 0xff, 0x34, 0x00, 0x00, 0x00, 
	0x73, 0x65, 0x71, 0x75, 0x65, 0x6e, 0x74, 0x69, 0x61, 0x6c, 0x2f, 0x64, 
	0x65, 0x6e, 0x73, 0x65, 0x5f, 0x32, 0x2f, 0x4d, 0x61, 0x74, 0x4d, 0x75, 
	0x6c, 0x3b, 0x73, 0x65, 0x71, 0x75, 0x65, 0x6e, 0x74, 0x69, 0x61, 0x6c, 
	0x2f, 0x64, 0x65, 0x6e, 0x73, 0x65, 0x5f, 0x32, 0x2f, 0x42, 0x69, 0x61, 
	0x73, 0x41, 0x64, 0x64, 0x00, 0x00, 0x00, 0x00, 0x02, 0x00, 0x00, 0x00, 
	0x01, 0x00, 0x00, 0x00, 0x03, 0x00, 0x00, 0x00, 0x0a, 0xfd, 0xff, 0xff, 
	0x00, 0x00, 0x00, 0x01, 0x14, 0x00, 0x00, 0x00, 0x1c, 0x00, 0x00, 0x00, 
	0x1c, 0x00, 0x00, 0x00, 0x09, 0x00, 0x00, 0x00, 0x68, 0x00, 0x00, 0x00, 
	0x02, 0x00, 0x00, 0x00, 0xff, 0xff, 0xff, 0xff, 0x28, 0x00, 0x00, 0x00, 
	0xf4, 0xfc, 0xff, 0xff, 0x4c, 0x00, 0x00, 0x00, 0x73, 0x65, 0x71, 0x75, 
	0x65, 0x6e, 0x74, 0x69, 0x61, 0x6c, 0x2f, 0x64, 0x65, 0x6e, 0x73, 0x65, 
	0x5f, 0x31, 0x2f, 0x4d, 0x61, 0x74, 0x4d, 0x75, 0x6c, 0x3b, 0x73, 0x65, 
	0x71, 0x75, 0x65, 0x6e, 0x74, 0x69, 0x61, 0x6c, 0x2f, 0x64, 0x65, 0x6e, 
	0x73, 0x65, 0x5f, 0x31, 0x2f, 0x52, 0x65, 0x6c, 0x75, 0x3b, 0x73, 0x65, 
	0x71, 0x75, 0x65, 0x6e, 0x74, 0x69, 0x61, 0x6c, 0x2f, 0x64, 0x65, 0x6e, 
	0x73, 0x65, 0x5f, 0x31, 0x2f, 0x42, 0x69, 0x61, 0x73, 0x41, 0x64, 0x64, 
	0x00, 0x00, 0x00, 0x00, 0x02, 0x00, 0x00, 0x00, 0x01, 0x00, 0x00, 0x00, 
	0x28, 0x00, 0x00, 0x00, 0x96, 0xfd, 0xff, 0xff, 0x00, 0x00, 0x00, 0x01, 
	0x14, 0x00, 0x00, 0x00, 0x1c, 0x00, 0x00, 0x00, 0x1c, 0x00, 0x00, 0x00, 
	0x08, 0x00, 0x00, 0x00, 0x60, 0x00, 0x00, 0x00, 0x02, 0x00, 0x00, 0x00, 
	0xff, 0xff, 0xff, 0xff, 0x14, 0x00, 0x00, 0x00, 0x80, 0xfd, 0xff, 0xff, 
	0x46, 0x00, 0x00, 0x00, 0x73, 0x65, 0x71, 0x75, 0x65, 0x6e, 0x74, 0x69, 
	0x61, 0x6c, 0x2f, 0x64, 0x65, 0x6e, 0x73, 0x65, 0x2f, 0x4d, 0x61, 0x74, 
	0x4d, 0x75, 0x6c, 0x3b, 0x73, 0x65, 0x71, 0x75, 0x65, 0x6e, 0x74, 0x69, 
	0x61, 0x6c, 0x2f, 0x64, 0x65, 0x6e, 0x73, 0x65, 0x2f, 0x52, 0x65, 0x6c, 
	0x75, 0x3b, 0x73, 0x65, 0x71, 0x75, 0x65, 0x6e, 0x74, 0x69, 0x61, 0x6c, 
	0x2f, 0x64, 0x65, 0x6e, 0x73, 0x65, 0x2f, 0x42, 0x69, 0x61, 0x73, 0x41, 
	0x64, 0x64, 0x00, 0x00, 0x02, 0x00, 0x00, 0x00, 0x01, 0x00, 0x00, 0x00, 
	0x14, 0x00, 0x00, 0x00, 0x86, 0xfe, 0xff, 0xff, 0x00, 0x00, 0x00, 0x01, 
	0x10, 0x00, 0x00, 0x00, 0x10, 0x00, 0x00, 0x00, 0x07, 0x00, 0x00, 0x00, 
	0x28, 0x00, 0x00, 0x00, 0xf4, 0xfd, 0xff, 0xff, 0x19, 0x00, 0x00, 0x00, 
	0x73, 0x65, 0x71, 0x75, 0x65, 0x6e, 0x74, 0x69, 0x61, 0x6c, 0x2f, 0x64, 
	0x65, 0x6e, 0x73, 0x65, 0x5f, 0x32, 0x2f, 0x4d, 0x61, 0x74, 0x4d, 0x75, 
	0x6c, 0x00, 0x00, 0x00, 0x02, 0x00, 0x00, 0x00, 0x03, 0x00, 0x00, 0x00, 
	0x28, 0x00, 0x00, 0x00, 0xce, 0xfe, 0xff, 0xff, 0x00, 0x00, 0x00, 0x01, 
	0x10, 0x00, 0x00, 0x00, 0x10, 0x00, 0x00, 0x00, 0x06, 0x00, 0x00, 0x00, 
	0x28, 0x00, 0x00, 0x00, 0x3c, 0xfe, 0xff, 0xff, 0x19, 0x00, 0x00, 0x00, 
	0x73, 0x65, 0x71, 0x75, 0x65, 0x6e, 0x74, 0x69, 0x61, 0x6c, 0x2f, 0x64, 
	0x65, 0x6e, 0x73, 0x65, 0x5f, 0x31, 0x2f, 0x4d, 0x61, 0x74, 0x4d, 0x75, 
	0x6c, 0x00, 0x00, 0x00, 0x02, 0x00, 0x00, 0x00, 0x28, 0x00, 0x00, 0x00, 
	0x14, 0x00, 0x00, 0x00, 0x16, 0xff, 0xff, 0xff, 0x00, 0x00, 0x00, 0x01, 
	0x10, 0x00, 0x00, 0x00, 0x10, 0x00, 0x00, 0x00, 0x05, 0x00, 0x00, 0x00, 
	0x24, 0x00, 0x00, 0x00, 0x84, 0xfe, 0xff, 0xff, 0x17, 0x00, 0x00, 0x00, 
	0x73, 0x65, 0x71, 0x75, 0x65, 0x6e, 0x74, 0x69, 0x61, 0x6c, 0x2f, 0x64, 
	0x65, 0x6e, 0x73, 0x65, 0x2f, 0x4d, 0x61, 0x74, 0x4d, 0x75, 0x6c, 0x00, 
	0x02, 0x00, 0x00, 0x00, 0x14, 0x00, 0x00, 0x00, 0x0d, 0x00, 0x00, 0x00, 
	0x5a, 0xff, 0xff, 0xff, 0x00, 0x00, 0x00, 0x01, 0x10, 0x00, 0x00, 0x00, 
	0x10, 0x00, 0x00, 0x00, 0x04, 0x00, 0x00, 0x00, 0x34, 0x00, 0x00, 0x00, 
	0xc8, 0xfe, 0xff, 0xff, 0x27, 0x00, 0x00, 0x00, 0x73, 0x65, 0x71, 0x75, 
	0x65, 0x6e, 0x74, 0x69, 0x61, 0x6c, 0x2f, 0x64, 0x65, 0x6e, 0x73, 0x65, 
	0x2f, 0x42, 0x69, 0x61, 0x73, 0x41, 0x64, 0x64, 0x2f, 0x52, 0x65, 0x61, 
	0x64, 0x56, 0x61, 0x72, 0x69, 0x61, 0x62, 0x6c, 0x65, 0x4f, 0x70, 0x00, 
	0x01, 0x00, 0x00, 0x00, 0x14, 0x00, 0x00, 0x00, 0xaa, 0xff, 0xff, 0xff, 
	0x00, 0x00, 0x00, 0x01, 0x10, 0x00, 0x00, 0x00, 0x10, 0x00, 0x00, 0x00, 
	0x03, 0x00, 0x00, 0x00, 0x38, 0x00, 0x00, 0x00, 0x18, 0xff, 0xff, 0xff, 
	0x29, 0x00, 0x00, 0x00, 0x73, 0x65, 0x71, 0x75, 0x65, 0x6e, 0x74, 0x69, 
	0x61, 0x6c, 0x2f, 0x64, 0x65, 0x6e, 0x73, 0x65, 0x5f, 0x32, 0x2f, 0x42, 
	0x69, 0x61, 0x73, 0x41, 0x64, 0x64, 0x2f, 0x52, 0x65, 0x61, 0x64, 0x56, 
	0x61, 0x72, 0x69, 0x61, 0x62, 0x6c, 0x65, 0x4f, 0x70, 0x00, 0x00, 0x00, 
	0x01, 0x00, 0x00, 0x00, 0x03, 0x00, 0x00, 0x00, 0x00, 0x00, 0x16, 0x00, 
	0x18, 0x00, 0x14, 0x00, 0x00, 0x00, 0x10, 0x00, 0x0c, 0x00, 0x08, 0x00, 
	0x00, 0x00, 0x00, 0x00, 0x00, 0x00, 0x07, 0x00, 0x16, 0x00, 0x00, 0x00, 
	0x00, 0x00, 0x00, 0x01, 0x10, 0x00, 0x00, 0x00, 0x10, 0x00, 0x00, 0x00, 
	0x02, 0x00, 0x00, 0x00, 0x38, 0x00, 0x00, 0x00, 0x84, 0xff, 0xff, 0xff, 
	0x29, 0x00, 0x00, 0x00, 0x73, 0x65, 0x71, 0x75, 0x65, 0x6e, 0x74, 0x69, 
	0x61, 0x6c, 0x2f, 0x64, 0x65, 0x6e, 0x73, 0x65, 0x5f, 0x31, 0x2f, 0x42, 
	0x69, 0x61, 0x73, 0x41, 0x64, 0x64, 0x2f, 0x52, 0x65, 0x61, 0x64, 0x56, 
	0x61, 0x72, 0x69, 0x61, 0x62, 0x6c, 0x65, 0x4f, 0x70, 0x00, 0x00, 0x00, 
	0x01, 0x00, 0x00, 0x00, 0x28, 0x00, 0x00, 0x00, 0x00, 0x00, 0x16, 0x00, 
	0x1c, 0x00, 0x18, 0x00, 0x00, 0x00, 0x14, 0x00, 0x10, 0x00, 0x0c, 0x00, 
	0x00, 0x00, 0x00, 0x00, 0x08, 0x00, 0x07, 0x00, 0x16, 0x00, 0x00, 0x00, 
	0x00, 0x00, 0x00, 0x01, 0x14, 0x00, 0x00, 0x00, 0x20, 0x00, 0x00, 0x00, 
	0x20, 0x00, 0x00, 0x00, 0x01, 0x00, 0x00, 0x00, 0x3c, 0x00, 0x00, 0x00, 
	0x02, 0x00, 0x00, 0x00, 0xff, 0xff, 0xff, 0xff, 0x0d, 0x00, 0x00, 0x00, 
	0x04, 0x00, 0x04, 0x00, 0x04, 0x00, 0x00, 0x00, 0x1d, 0x00, 0x00, 0x00, 
	0x73, 0x65, 0x72, 0x76, 0x69, 0x6e, 0x67, 0x5f, 0x64, 0x65, 0x66, 0x61, 
	0x75, 0x6c, 0x74, 0x5f, 0x64, 0x65, 0x6e, 0x73, 0x65, 0x5f, 0x69, 0x6e, 
	0x70, 0x75, 0x74, 0x3a, 0x30, 0x00, 0x00, 0x00, 0x02, 0x00, 0x00, 0x00, 
	0x01, 0x00, 0x00, 0x00, 0x0d, 0x00, 0x00, 0x00, 0x02, 0x00, 0x00, 0x00, 
	0x20, 0x00, 0x00, 0x00, 0x04, 0x00, 0x00, 0x00, 0xf4, 0xff, 0xff, 0xff, 
	0x19, 0x00, 0x00, 0x00, 0x00, 0x00, 0x00, 0x19, 0x0c, 0x00, 0x0c, 0x00, 
	0x0b, 0x00, 0x00, 0x00, 0x00, 0x00, 0x04, 0x00, 0x0c, 0x00, 0x00, 0x00, 
	0x09, 0x00, 0x00, 0x00, 0x00, 0x00, 0x00, 0x09
};
const int WineClassificationModel_len = 7076;
float x_test[13] = { 13.05, 1.77, 2.1, 17.0, 107.0, 3.0, 3.0, 0.28, 2.03, 5.04, 0.88, 3.35, 885.0 };
const int y_test = 0;