
// if having troubles with min/max, uncomment the following
// #undef min    
// #undef max
#ifdef __has_attribute
#define HAVE_ATTRIBUTE(x) __has_attribute(x)
#else
#define HAVE_ATTRIBUTE(x) 0
#endif
#if HAVE_ATTRIBUTE(aligned) || (defined(__GNUC__) && !defined(__clang__))
#define DATA_ALIGN_ATTRIBUTE __attribute__((aligned(4)))
#else
#define DATA_ALIGN_ATTRIBUTE
#endif
const unsigned char AirQualityModel[] DATA_ALIGN_ATTRIBUTE = {0x1c, 0x00, 0x00, 0x00, 0x54, 0x46, 0x4c, 0x33, 0x14, 0x00, 0x20, 0x00, 0x1c, 0x00, 0x18, 0x00, 0x14, 0x00, 0x10, 0x00, 0x0c, 0x00, 0x00, 0x00, 0x08, 0x00, 0x04, 0x00, 0x14, 0x00, 0x00, 0x00, 0x1c, 0x00, 0x00, 0x00, 0x8c, 0x00, 0x00, 0x00, 0xe4, 0x00, 0x00, 0x00, 0x4c, 0x21, 0x00, 0x00, 0x5c, 0x21, 0x00, 0x00, 0x68, 0x29, 0x00, 0x00, 0x03, 0x00, 0x00, 0x00, 0x01, 0x00, 0x00, 0x00, 0x10, 0x00, 0x00, 0x00, 0x00, 0x00, 0x0a, 0x00, 0x10, 0x00, 0x0c, 0x00, 0x08, 0x00, 0x04, 0x00, 0x0a, 0x00, 0x00, 0x00, 0x0c, 0x00, 0x00, 0x00, 0x1c, 0x00, 0x00, 0x00, 0x3c, 0x00, 0x00, 0x00, 0x0f, 0x00, 0x00, 0x00, 0x73, 0x65, 0x72, 0x76, 0x69, 0x6e, 0x67, 0x5f, 0x64, 0x65, 0x66, 0x61, 0x75, 0x6c, 0x74, 0x00, 0x01, 0x00, 0x00, 0x00, 0x04, 0x00, 0x00, 0x00, 0x9c, 0xff, 0xff, 0xff, 0x16, 0x00, 0x00, 0x00, 0x04, 0x00, 0x00, 0x00, 0x08, 0x00, 0x00, 0x00, 0x6f, 0x75, 0x74, 0x70, 0x75, 0x74, 0x5f, 0x30, 0x00, 0x00, 0x00, 0x00, 0x01, 0x00, 0x00, 0x00, 0x04, 0x00, 0x00, 0x00, 0x82, 0xe0, 0xff, 0xff, 0x04, 0x00, 0x00, 0x00, 0x01, 0x00, 0x00, 0x00, 0x78, 0x00, 0x00, 0x00, 0x02, 0x00, 0x00, 0x00, 0x34, 0x00, 0x00, 0x00, 0x04, 0x00, 0x00, 0x00, 0xdc, 0xff, 0xff, 0xff, 0x19, 0x00, 0x00, 0x00, 0x04, 0x00, 0x00, 0x00, 0x13, 0x00, 0x00, 0x00, 0x43, 0x4f, 0x4e, 0x56, 0x45, 0x52, 0x53, 0x49, 0x4f, 0x4e, 0x5f, 0x4d, 0x45, 0x54, 0x41, 0x44, 0x41, 0x54, 0x41, 0x00, 0x08, 0x00, 0x0c, 0x00, 0x08, 0x00, 0x04, 0x00, 0x08, 0x00, 0x00, 0x00, 0x18, 0x00, 0x00, 0x00, 0x04, 0x00, 0x00, 0x00, 0x13, 0x00, 0x00, 0x00, 0x6d, 0x69, 0x6e, 0x5f, 0x72, 0x75, 0x6e, 0x74, 0x69, 0x6d, 0x65, 0x5f, 0x76, 0x65, 0x72, 0x73, 0x69, 0x6f, 0x6e, 0x00, 0x1a, 0x00, 0x00, 0x00, 0x64, 0x20, 0x00, 0x00, 0x5c, 0x20, 0x00, 0x00, 0x0c, 0x1f, 0x00, 0x00, 0xf0, 0x1e, 0x00, 0x00, 0xa0, 0x18, 0x00, 0x00, 0x50, 0x12, 0x00, 0x00, 0x00, 0x0c, 0x00, 0x00, 0xb0, 0x05, 0x00, 0x00, 0x50, 0x05, 0x00, 0x00, 0xf0, 0x04, 0x00, 0x00, 0x90, 0x04, 0x00, 0x00, 0x30, 0x04, 0x00, 0x00, 0xd0, 0x03, 0x00, 0x00, 0x70, 0x03, 0x00, 0x00, 0x10, 0x03, 0x00, 0x00, 0xb0, 0x02, 0x00, 0x00, 0x50, 0x02, 0x00, 0x00, 0x34, 0x02, 0x00, 0x00, 0x18, 0x02, 0x00, 0x00, 0xfc, 0x01, 0x00, 0x00, 0xac, 0x00, 0x00, 0x00, 0xa4, 0x00, 0x00, 0x00, 0x9c, 0x00, 0x00, 0x00, 0x94, 0x00, 0x00, 0x00, 0x74, 0x00, 0x00, 0x00, 0x04, 0x00, 0x00, 0x00, 0x5a, 0xe1, 0xff, 0xff, 0x04, 0x00, 0x00, 0x00, 0x60, 0x00, 0x00, 0x00, 0x0c, 0x00, 0x00, 0x00, 0x08, 0x00, 0x0e, 0x00, 0x08, 0x00, 0x04, 0x00, 0x08, 0x00, 0x00, 0x00, 0x10, 0x00, 0x00, 0x00, 0x24, 0x00, 0x00, 0x00, 0x00, 0x00, 0x06, 0x00, 0x08, 0x00, 0x04, 0x00, 0x06, 0x00, 0x00, 0x00, 0x04, 0x00, 0x00, 0x00, 0x00, 0x00, 0x00, 0x00, 0x00, 0x00, 0x0a, 0x00, 0x10, 0x00, 0x0c, 0x00, 0x08, 0x00, 0x04, 0x00, 0x0a, 0x00, 0x00, 0x00, 0x01, 0x00, 0x00, 0x00, 0x02, 0x00, 0x00, 0x00, 0x04, 0x00, 0x00, 0x00, 0x12, 0x00, 0x00, 0x00, 0x32, 0x2e, 0x31, 0x34, 0x2e, 0x30, 0x2d, 0x64, 0x65, 0x76, 0x32, 0x30, 0x32, 0x33, 0x30, 0x35, 0x31, 0x39, 0x00, 0x00, 0xc6, 0xe1, 0xff, 0xff, 0x04, 0x00, 0x00, 0x00, 0x10, 0x00, 0x00, 0x00, 0x31, 0x2e, 0x31, 0x33, 0x2e, 0x31, 0x00, 0x00, 0x00, 0x00, 0x00, 0x00, 0x00, 0x00, 0x00, 0x00, 0x94, 0xd8, 0xff, 0xff, 0x98, 0xd8, 0xff, 0xff, 0x9c, 0xd8, 0xff, 0xff, 0xee, 0xe1, 0xff, 0xff, 0x04, 0x00, 0x00, 0x00, 0x40, 0x01, 0x00, 0x00, 0x00, 0x00, 0x00, 0x00, 0x00, 0x00, 0x00, 0x00, 0x00, 0x00, 0x00, 0x00, 0x00, 0x00, 0x00, 0x00, 0x00, 0x00, 0x00, 0x00, 0x00, 0x00, 0x00, 0x00, 0x00, 0x00, 0x00, 0x00, 0x00, 0x00, 0x00, 0x00, 0x00, 0x00, 0x00, 0x00, 0x00, 0x00, 0x00, 0x00, 0x00, 0x00, 0x00, 0x00, 0x00, 0x00, 0x00, 0x00, 0x00, 0x00, 0x00, 0x00, 0x00, 0x00, 0x00, 0x00, 0x00, 0x00, 0x00, 0x00, 0x00, 0x00, 0x00, 0x00, 0x00, 0x00, 0x00, 0x00, 0x00, 0x00, 0x00, 0x00, 0x00, 0x00, 0x00, 0x00, 0x00, 0x00, 0x00, 0x00, 0x00, 0x00, 0x00, 0x00, 0x00, 0x00, 0x00, 0x00, 0x00, 0x00, 0x00, 0x00, 0x00, 0x00, 0x00, 0x00, 0x00, 0x00, 0x00, 0x00, 0x00, 0x00, 0x00, 0x00, 0x00, 0x00, 0x00, 0x00, 0x00, 0x00, 0x00, 0x00, 0x00, 0x00, 0x00, 0x00, 0x00, 0x00, 0x00, 0x00, 0x00, 0x00, 0x00, 0x00, 0x00, 0x00, 0x00, 0x00, 0x00, 0x00, 0x00, 0x00, 0x00, 0x00, 0x00, 0x00, 0x00, 0x00, 0x00, 0x00, 0x00, 0x00, 0x00, 0x00, 0x00, 0x00, 0x00, 0x00, 0x00, 0x00, 0x00, 0x00, 0x00, 0x00, 0x00, 0x00, 0x00, 0x00, 0x00, 0x00, 0x00, 0x00, 0x00, 0x00, 0x00, 0x00, 0x00, 0x00, 0x00, 0x00, 0x00, 0x00, 0x00, 0x00, 0x00, 0x00, 0x00, 0x00, 0x00, 0x00, 0x00, 0x00, 0x00, 0x00, 0x00, 0x00, 0x00, 0x00, 0x00, 0x00, 0x00, 0x00, 0x00, 0x00, 0x00, 0x00, 0x00, 0x00, 0x00, 0x00, 0x00, 0x00, 0x00, 0x00, 0x00, 0x00, 0x00, 0x00, 0x00, 0x00, 0x00, 0x00, 0x00, 0x00, 0x00, 0x00, 0x00, 0x00, 0x00, 0x00, 0x00, 0x00, 0x00, 0x00, 0x00, 0x00, 0x00, 0x00, 0x00, 0x00, 0x00, 0x00, 0x00, 0x00, 0x00, 0x00, 0x00, 0x00, 0x00, 0x00, 0x00, 0x00, 0x00, 0x00, 0x00, 0x00, 0x00, 0x00, 0x00, 0x00, 0x00, 0x00, 0x00, 0x00, 0x00, 0x00, 0x00, 0x00, 0x00, 0x00, 0x00, 0x00, 0x00, 0x00, 0x00, 0x00, 0x00, 0x00, 0x00, 0x00, 0x00, 0x00, 0x00, 0x00, 0x00, 0x00, 0x00, 0x00, 0x00, 0x00, 0x00, 0x00, 0x00, 0x00, 0x00, 0x00, 0x00, 0x00, 0x00, 0x00, 0x00, 0x00, 0x00, 0x00, 0x00, 0x00, 0x00, 0x00, 0x00, 0x00, 0x00, 0x00, 0x00, 0x00, 0x00, 0x00, 0x00, 0x00, 0x00, 0x00, 0x00, 0x00, 0x00, 0x00, 0x00, 0x00, 0x00, 0x00, 0x00, 0x00, 0x3a, 0xe3, 0xff, 0xff, 0x04, 0x00, 0x00, 0x00, 0x0c, 0x00, 0x00, 0x00, 0x01, 0x00, 0x00, 0x00, 0x01, 0x00, 0x00, 0x00, 0x01, 0x00, 0x00, 0x00, 0x52, 0xe3, 0xff, 0xff, 0x04, 0x00, 0x00, 0x00, 0x0c, 0x00, 0x00, 0x00, 0x00, 0x00, 0x00, 0x00, 0x00, 0x00, 0x00, 0x00, 0x00, 0x00, 0x00, 0x00, 0x6a, 0xe3, 0xff, 0xff, 0x04, 0x00, 0x00, 0x00, 0x0c, 0x00, 0x00, 0x00, 0x00, 0x00, 0x00, 0x00, 0xff, 0xff, 0xff, 0xff, 0x00, 0x00, 0x00, 0x00, 0x82, 0xe3, 0xff, 0xff, 0x04, 0x00, 0x00, 0x00, 0x50, 0x00, 0x00, 0x00, 0x64, 0x1e, 0xf4, 0x3e, 0xf5, 0x99, 0x18, 0xbe, 0x7f, 0x16, 0x21, 0xbf, 0x2b, 0xf4, 0x40, 0x3e, 0xaf, 0xab, 0x8c, 0xbe, 0x91, 0x76, 0x22, 0x3f, 0x5e, 0xab, 0x34, 0x3f, 0x0c, 0xb8, 0x01, 0xbf, 0x21, 0x2a, 0xa7, 0xbd, 0xac, 0x88, 0x71, 0x3e, 0xd1, 0xff, 0x5b, 0x3e, 0xb6, 0xc9, 0x1b, 0xbf, 0xfb, 0xc8, 0xb6, 0xbc, 0x64, 0x0a, 0x08, 0x3f, 0x47, 0xc7, 0x89, 0x3d, 0x6c, 0x8c, 0x40, 0x3d, 0xea, 0x06, 0x01, 0x3f, 0xf2, 0x22, 0xd3, 0x3e, 0x56, 0xb3, 0x06, 0x3f, 0x10, 0x1e, 0xb2, 0x3e, 0xde, 0xe3, 0xff, 0xff, 0x04, 0x00, 0x00, 0x00, 0x50, 0x00, 0x00, 0x00, 0x3d, 0x2b, 0xb8, 0x3e, 0xfa, 0x65, 0x3c, 0x3e, 0x16, 0x00, 0xdd, 0x3e, 0xa0, 0x5c, 0x24, 0x3e, 0x33, 0x13, 0x96, 0x3e, 0xde, 0xf5, 0xd6, 0xbc, 0x9d, 0x3e, 0x39, 0xbd, 0xe3, 0x66, 0x99, 0x3e, 0x76, 0x01, 0xac, 0x3d, 0x90, 0xe3, 0xb5, 0x3e, 0xed, 0x37, 0x8e, 0x3d, 0x1c, 0x05, 0x2f, 0x3e, 0xc4, 0x12, 0x26, 0xbe, 0x69, 0xc9, 0x95, 0xbd, 0x21, 0xe5, 0x23, 0x3c, 0xb3, 0xc0, 0x7e, 0xbe, 0x4b, 0x5a, 0x1e, 0x3f, 0x32, 0xdd, 0xea, 0x3e, 0x93, 0x63, 0xe7, 0x3e, 0xda, 0x96, 0xb5, 0x3e, 0x3a, 0xe4, 0xff, 0xff, 0x04, 0x00, 0x00, 0x00, 0x50, 0x00, 0x00, 0x00, 0x96, 0xba, 0xa1, 0x3e, 0x2d, 0x27, 0xa6, 0xbe, 0x69, 0xe0, 0x9d, 0xbe, 0xb1, 0xcb, 0x9d, 0x3e, 0x61, 0xab, 0x8f, 0xbe, 0x26, 0xf9, 0x9d, 0x3e, 0x9c, 0xb3, 0x38, 0x3e, 0x56, 0x4d, 0xc1, 0xbe, 0x66, 0xe4, 0x2d, 0xbe, 0x89, 0x34, 0xb5, 0x3e, 0x16, 0xe2, 0xd4, 0x3d, 0x80, 0xe1, 0x62, 0xbe, 0x50, 0x07, 0x97, 0x3c, 0xd4, 0x79, 0x07, 0x3e, 0x9e, 0xd2, 0x07, 0x3e, 0xf7, 0xc3, 0x57, 0x3e, 0xb2, 0x04, 0x40, 0x3e, 0x4b, 0xcd, 0x79, 0x3e, 0x64, 0x0b, 0x29, 0x3e, 0xb1, 0x77, 0xad, 0x3e, 0x96, 0xe4, 0xff, 0xff, 0x04, 0x00, 0x00, 0x00, 0x50, 0x00, 0x00, 0x00, 0xd3, 0x43, 0xbc, 0xbd, 0x32, 0x6c, 0xc2, 0xbd, 0xe3, 0x04, 0xae, 0x3e, 0xa3, 0x05, 0x15, 0x3e, 0xc9, 0x6e, 0x1a, 0x3e, 0x0b, 0xcd, 0x64, 0xbe, 0x0f, 0x43, 0xed, 0x3d, 0x0a, 0xdf, 0x14, 0xbf, 0x01, 0xb1, 0x22, 0x3d, 0x0c, 0x33, 0xf2, 0x3d, 0xa8, 0xd9, 0xfb, 0x3d, 0xb8, 0xca, 0x19, 0xbe, 0x4e, 0xad, 0xc8, 0xbb, 0xc2, 0xde, 0x49, 0xbd, 0xda, 0x09, 0x70, 0xbe, 0xb8, 0x0b, 0xeb, 0xbd, 0x9f, 0x7b, 0x4f, 0x3e, 0x03, 0x41, 0x10, 0xbd, 0x09, 0x8d, 0x19, 0x3d, 0xed, 0xae, 0x10, 0x3e, 0xf2, 0xe4, 0xff, 0xff, 0x04, 0x00, 0x00, 0x00, 0x50, 0x00, 0x00, 0x00, 0x63, 0xe5, 0x09, 0xbe, 0xc8, 0xff, 0x0b, 0xbd, 0x07, 0x26, 0x26, 0xbe, 0xfa, 0x88, 0x6a, 0x3d, 0x50, 0xa9, 0xc5, 0x3c, 0x35, 0x36, 0x85, 0x3e, 0x21, 0x3d, 0xca, 0xbd, 0x7d, 0x6a, 0x7c, 0x3e, 0x2b, 0x72, 0x1e, 0xbe, 0x48, 0x8f, 0x37, 0xbe, 0xa5, 0xe4, 0x3d, 0xbe, 0x24, 0xa3, 0x8f, 0x3d, 0x31, 0xee, 0xb8, 0xbc, 0xaa, 0xd5, 0x48, 0xbe, 0xe9, 0x63, 0xda, 0xbd, 0x2f, 0xb2, 0x9a, 0xbe, 0xfe, 0x28, 0xad, 0x3e, 0x5b, 0xc2, 0xdd, 0xbd, 0xca, 0x6d, 0xf6, 0x3c, 0x37, 0x62, 0x8a, 0x3e, 0x4e, 0xe5, 0xff, 0xff, 0x04, 0x00, 0x00, 0x00, 0x50, 0x00, 0x00, 0x00, 0x11, 0x8e, 0xac, 0x3d, 0x2b, 0x34, 0xac, 0x3d, 0x47, 0x17, 0xa1, 0x3d, 0x52, 0xc3, 0xda, 0x3d, 0x26, 0x97, 0x73, 0x3d, 0x01, 0xb9, 0xcd, 0x3d, 0x5f, 0x4d, 0x6b, 0x3e, 0x34, 0xa4, 0x1c, 0x3f, 0xcb, 0x40, 0x4a, 0xbc, 0xda, 0xcb, 0x83, 0x3d, 0xf0, 0x57, 0x16, 0xbd, 0xfe, 0xbc, 0xad, 0x3d, 0xbc, 0x33, 0x64, 0xbd, 0xa6, 0xa1, 0x69, 0x3d, 0x65, 0x50, 0x72, 0xbd, 0x1c, 0x3f, 0xb8, 0xbd, 0x2e, 0x19, 0xbd, 0x3c, 0x12, 0x01, 0xb0, 0x3d, 0xbd, 0xb6, 0x8f, 0x3d, 0x96, 0xaa, 0xac, 0x3d, 0xaa, 0xe5, 0xff, 0xff, 0x04, 0x00, 0x00, 0x00, 0x50, 0x00, 0x00, 0x00, 0x9c, 0x3a, 0xa1, 0x3b, 0xf7, 0x5a, 0xc1, 0x3c, 0xfa, 0x97, 0xa8, 0xbc, 0x0d, 0xa2, 0x06, 0xbd, 0x5b, 0x67, 0x48, 0xbc, 0x86, 0xc4, 0x03, 0xbc, 0x98, 0xc3, 0xaa, 0xbb, 0xad, 0x2a, 0xb5, 0x3d, 0xf8, 0x14, 0xbe, 0x3c, 0x11, 0x81, 0xe4, 0x3b, 0x8a, 0x45, 0x28, 0x3c, 0xbe, 0x19, 0x10, 0x3a, 0x7a, 0xe9, 0xb7, 0xbc, 0xae, 0x00, 0xe5, 0xbb, 0xe7, 0x92, 0x33, 0xbd, 0xf7, 0x0f, 0x81, 0xbb, 0xbd, 0x81, 0x42, 0x3d, 0x4a, 0x7a, 0x59, 0x3c, 0xc1, 0x62, 0x82, 0x3c, 0x40, 0xc8, 0x96, 0x3c, 0x06, 0xe6, 0xff, 0xff, 0x04, 0x00, 0x00, 0x00, 0x50, 0x00, 0x00, 0x00, 0x85, 0xa9, 0x80, 0x3f, 0x92, 0xba, 0x7d, 0x3f, 0xa8, 0x0e, 0x80, 0x3f, 0xec, 0xa9, 0x79, 0x3f, 0xab, 0xd4, 0x7d, 0x3f, 0x47, 0x46, 0x7a, 0x3f, 0xac, 0x42, 0x6f, 0x3f, 0x1a, 0xfe, 0x64, 0x3f, 0x0e, 0x87, 0x69, 0x3f, 0x76, 0xa6, 0x81, 0x3f, 0x11, 0x1d, 0x75, 0x3f, 0xc7, 0xeb, 0x7a, 0x3f, 0x9c, 0xba, 0x74, 0x3f, 0x7f, 0xcc, 0x74, 0x3f, 0x29, 0xfd, 0x63, 0x3f, 0x1c, 0xa5, 0x75, 0x3f, 0xca, 0x16, 0x70, 0x3f, 0x61, 0x00, 0x80, 0x3f, 0xde, 0x7f, 0x6e, 0x3f, 0x48, 0x05, 0x80, 0x3f, 0x62, 0xe6, 0xff, 0xff, 0x04, 0x00, 0x00, 0x00, 0x50, 0x00, 0x00, 0x00, 0xb1, 0x4b, 0xcd, 0x3d, 0xeb, 0xbb, 0xbd, 0x3d, 0x44, 0x9a, 0xc9, 0x3d, 0xc6, 0x3f, 0xe8, 0x3d, 0x18, 0x9a, 0x86, 0x3d, 0xd8, 0xe6, 0xc9, 0x3d, 0xd7, 0xb5, 0x54, 0x3e, 0xd3, 0x63, 0x11, 0x3f, 0x82, 0x80, 0x91, 0xbc, 0x2e, 0xf1, 0xb6, 0x3d, 0x34, 0xb6, 0x16, 0xbd, 0x8e, 0xdf, 0xb7, 0x3d, 0xed, 0xa0, 0x6a, 0xbd, 0x55, 0x6d, 0x56, 0x3d, 0x95, 0x2f, 0x82, 0xbd, 0xae, 0x57, 0xb8, 0xbd, 0x19, 0xb6, 0x8c, 0x3d, 0x84, 0xba, 0xd0, 0x3d, 0xb5, 0x9c, 0xcb, 0x3d, 0x31, 0xa7, 0xc8, 0x3d, 0xbe, 0xe6, 0xff, 0xff, 0x04, 0x00, 0x00, 0x00, 0x40, 0x06, 0x00, 0x00, 0xee, 0x90, 0x68, 0xbd, 0x3e, 0xf0, 0x45, 0x3c, 0x4a, 0x83, 0x96, 0x3c, 0x50, 0x2b, 0x66, 0x3e, 0x62, 0x91, 0x67, 0xbe, 0x5d, 0x43, 0xed, 0x3d, 0xba, 0x62, 0x3f, 0x3d, 0x51, 0x9c, 0xc8, 0x3e, 0x00, 0x96, 0x7d, 0xbe, 0x2b, 0xd0, 0x2a, 0x3e, 0x93, 0x2d, 0x56, 0x3d, 0xbd, 0x31, 0x4c, 0xbc, 0xc9, 0x2b, 0xf7, 0xbc, 0xa5, 0x0a, 0x35, 0x3d, 0x8f, 0xb9, 0xec, 0xbd, 0x68, 0x74, 0x0f, 0x3e, 0x7f, 0x2f, 0xa4, 0xbc, 0xaa, 0x6f, 0xd8, 0xbc, 0xc9, 0x34, 0x43, 0xbd, 0x43, 0x86, 0xc2, 0xbd, 0x62, 0x01, 0xce, 0xbc, 0xd2, 0x67, 0x36, 0x3c, 0x45, 0x0a, 0x0b, 0x3e, 0x63, 0x72, 0x00, 0x3e, 0xcf, 0x9c, 0xdc, 0xbd, 0x33, 0xa7, 0x14, 0xbe, 0x39, 0xc3, 0xdf, 0x3d, 0xdc, 0x62, 0xc4, 0x3d, 0xbe, 0xcc, 0x0c, 0xbd, 0x01, 0x7b, 0xf9, 0xbd, 0x62, 0xaf, 0x31, 0x3e, 0x34, 0x62, 0x06, 0x3e, 0x5d, 0xad, 0x0a, 0xbe, 0xff, 0xf2, 0x05, 0x3d, 0x1f, 0x0c, 0xa7, 0x3d, 0xba, 0x5c, 0x19, 0x3d, 0x3d, 0x78, 0x99, 0xbe, 0x67, 0xb2, 0x70, 0x3d, 0x5b, 0x3b, 0x1d, 0x3e, 0x35, 0xa3, 0xa1, 0xbc, 0x71, 0x5a, 0x75, 0x3d, 0xf0, 0x19, 0x12, 0xbe, 0x49, 0x6f, 0x8e, 0x3d, 0xf4, 0x5b, 0xc7, 0xbd, 0xca, 0x07, 0xa9, 0x3d, 0x29, 0xeb, 0x23, 0x3d, 0x4a, 0xc7, 0x18, 0xbd, 0xbb, 0xad, 0xca, 0x3e, 0x16, 0xda, 0xea, 0xbd, 0x2a, 0x9e, 0xd8, 0x3d, 0x90, 0xfd, 0xa0, 0x3d, 0x8a, 0x6d, 0xaf, 0xbd, 0x87, 0x8d, 0x48, 0x3e, 0x67, 0x88, 0xcf, 0xbc, 0x65, 0x21, 0x3e, 0xbc, 0x58, 0xf3, 0x61, 0x3e, 0x0d, 0x1f, 0x01, 0xbe, 0x83, 0x57, 0x19, 0x3b, 0x43, 0xce, 0x0b, 0x3e, 0xe0, 0xb2, 0x26, 0xbe, 0xfe, 0xa4, 0xce, 0xbd, 0xe8, 0xef, 0x23, 0x3e, 0x3c, 0x7c, 0x9a, 0xbe, 0x73, 0x64, 0x34, 0xbe, 0x22, 0x1f, 0x0d, 0xbd, 0xb7, 0x93, 0x1e, 0x3e, 0x20, 0x98, 0xf4, 0x3d, 0x50, 0xca, 0xf4, 0x3c, 0x9b, 0xd8, 0x52, 0x3e, 0x1c, 0xe5, 0x9f, 0x3d, 0xc2, 0x35, 0xee, 0x3d, 0x3a, 0xa1, 0xe3, 0x3d, 0xb4, 0x9b, 0xbc, 0x3b, 0x13, 0xa8, 0x0b, 0xbd, 0x6c, 0xbf, 0x20, 0xba, 0xe0, 0xd8, 0xa4, 0x3e, 0x4e, 0x9c, 0xd6, 0x3d, 0x78, 0xad, 0x1c, 0x3e, 0xa3, 0x8b, 0x16, 0xbd, 0x25, 0x53, 0xfe, 0x3d, 0x97, 0x42, 0xfb, 0xbd, 0xb9, 0x11, 0xf3, 0xbd, 0x66, 0xcf, 0x86, 0xbc, 0xfe, 0xcc, 0xf2, 0x3d, 0x48, 0xbb, 0x1a, 0x3d, 0xe3, 0xff, 0xa7, 0x3e, 0x62, 0xc0, 0x06, 0xbe, 0x91, 0x2a, 0x8a, 0x3e, 0x01, 0x42, 0x19, 0xbe, 0x7b, 0xbd, 0x3d, 0x3e, 0x1a, 0x4a, 0x89, 0xbd, 0x95, 0xb5, 0xd3, 0x3d, 0x1c, 0x87, 0x31, 0x3d, 0x10, 0xd5, 0xcc, 0xbd, 0xd3, 0xb0, 0x14, 0x3e, 0xfd, 0xaf, 0xa4, 0x3c, 0xa1, 0x25, 0x16, 0xbe, 0x7c, 0x6a, 0x86, 0x3d, 0x20, 0x06, 0x31, 0xbd, 0x34, 0xda, 0x53, 0xbc, 0xe4, 0x5e, 0x65, 0xbc, 0xf0, 0x36, 0x6f, 0x3d, 0x91, 0x33, 0x46, 0xbe, 0xae, 0xfd, 0x4b, 0xbe, 0x49, 0x15, 0x08, 0xbe, 0xd5, 0x9e, 0x0d, 0x3d, 0x30, 0x09, 0x31, 0xbe, 0xda, 0xcd, 0xc3, 0x3e, 0xb6, 0x33, 0x9d, 0xbd, 0xf4, 0x45, 0xf7, 0xbc, 0x4c, 0x17, 0xf3, 0xbd, 0xb6, 0x4b, 0xee, 0x3d, 0xcc, 0x1d, 0x6a, 0x3d, 0xa1, 0x87, 0x0c, 0x3e, 0x3f, 0x2b, 0x8d, 0xbe, 0x42, 0x8a, 0xee, 0x3d, 0x32, 0xe2, 0x01, 0xbe, 0x28, 0x0c, 0x0a, 0x3d, 0xd8, 0xc8, 0x9b, 0xbd, 0x7c, 0x6e, 0xa0, 0xbc, 0xd3, 0xdb, 0x8c, 0x3d, 0xd6, 0x5d, 0x19, 0xbe, 0x9d, 0x81, 0x93, 0xbd, 0xa2, 0xb6, 0x8f, 0x3e, 0x30, 0xfa, 0xd9, 0xbc, 0x03, 0x1e, 0x76, 0x3e, 0x84, 0xde, 0x44, 0x3d, 0x8b, 0xbb, 0xa4, 0xbc, 0x80, 0x69, 0x54, 0x3e, 0x3f, 0x77, 0x1d, 0x3e, 0x4e, 0xc0, 0xc9, 0x3c, 0x05, 0x08, 0xdd, 0xbe, 0x5f, 0x11, 0x83, 0x3d, 0xd6, 0xb5, 0x90, 0x3e, 0x86, 0x6b, 0x79, 0xbe, 0xa6, 0xce, 0x55, 0x3e, 0xeb, 0xdc, 0x2c, 0x3e, 0xfc, 0x46, 0x23, 0x3e, 0x53, 0x2b, 0x83, 0x3e, 0x09, 0x48, 0xc1, 0x3e, 0xe3, 0xd5, 0x4e, 0x3f, 0x24, 0x8e, 0xf6, 0xbe, 0x36, 0xb7, 0x21, 0xbf, 0x5e, 0x38, 0x3c, 0x3f, 0xe7, 0x46, 0xcc, 0xbe, 0x37, 0x0a, 0x21, 0x3f, 0x35, 0x2e, 0x16, 0x3e, 0x0d, 0x86, 0x4e, 0x3d, 0xb0, 0xbf, 0xab, 0x3e, 0x32, 0x6a, 0x1b, 0x3f, 0x01, 0x7a, 0x06, 0x3f, 0xdc, 0x2f, 0x19, 0xbf, 0xe5, 0x73, 0x1c, 0x3e, 0x21, 0x74, 0x9f, 0x3e, 0x17, 0xc2, 0x06, 0xbf, 0xdc, 0xf0, 0x9e, 0x3e, 0xa2, 0xaf, 0x57, 0x3f, 0x4f, 0x6d, 0x39, 0x3f, 0xec, 0x11, 0x0a, 0x3f, 0xca, 0x34, 0x23, 0x3f, 0xd0, 0xc8, 0x00, 0xbd, 0x50, 0x93, 0x69, 0x3d, 0xc2, 0xad, 0x69, 0x3d, 0x5d, 0xd9, 0x4d, 0x3c, 0x44, 0x73, 0xd2, 0x3c, 0x28, 0xae, 0xcd, 0xbd, 0x36, 0xdb, 0xe6, 0xbd, 0xe0, 0xa5, 0x38, 0x3e, 0x86, 0xd7, 0x74, 0x3e, 0xa4, 0x0d, 0xbc, 0x3d, 0xa0, 0xce, 0x04, 0x3e, 0xec, 0xa9, 0x24, 0x3d, 0x36, 0xb9, 0xe0, 0x3c, 0x47, 0x80, 0x01, 0x3d, 0x9b, 0x84, 0x30, 0xbd, 0x3c, 0x92, 0xf6, 0x3d, 0x0c, 0x95, 0x05, 0x3d, 0x13, 0x6c, 0x9a, 0xba, 0xb9, 0x6e, 0xfc, 0x3d, 0xc1, 0x50, 0xcd, 0x3d, 0xea, 0x41, 0x81, 0xbd, 0x33, 0x07, 0xc9, 0x3d, 0xd5, 0x86, 0x9f, 0xbd, 0x00, 0xc7, 0x84, 0xbd, 0xc4, 0x13, 0xa9, 0x3d, 0xa3, 0x66, 0x18, 0xbe, 0x0e, 0xdb, 0x37, 0xbd, 0xca, 0xc9, 0x73, 0x3e, 0x64, 0xd5, 0x2b, 0x3d, 0x51, 0x15, 0x18, 0xbe, 0xfb, 0xaa, 0xc1, 0xbd, 0x10, 0xa5, 0xd4, 0x3d, 0xf7, 0xec, 0xfc, 0xbb, 0xf7, 0xb8, 0x50, 0xbd, 0x00, 0xc7, 0x35, 0xbe, 0x29, 0x42, 0x65, 0x3e, 0x8d, 0x9b, 0xc8, 0xbc, 0x9e, 0xec, 0x2a, 0x3c, 0x35, 0x4c, 0x53, 0xbe, 0x64, 0x5f, 0xaf, 0xbd, 0x71, 0xac, 0x2b, 0x3c, 0x8b, 0xb2, 0xfe, 0xbc, 0xde, 0x7d, 0x07, 0xbc, 0x1f, 0x8b, 0x1f, 0xbe, 0x93, 0xa5, 0xdd, 0x3d, 0xc9, 0xcb, 0xb4, 0x3d, 0xdc, 0x38, 0xe0, 0x3c, 0xb8, 0x62, 0x63, 0xbd, 0x93, 0xe3, 0xaf, 0x3d, 0xf6, 0x2f, 0xcf, 0xbc, 0xb7, 0x7e, 0x1a, 0xbd, 0xb1, 0x4f, 0xbb, 0x3d, 0x40, 0x6b, 0x02, 0x3e, 0x15, 0x1a, 0x18, 0x3e, 0x9f, 0xed, 0x13, 0x3d, 0x1b, 0x4c, 0x88, 0xbd, 0x22, 0x26, 0xd6, 0xbc, 0xab, 0x21, 0x20, 0xbc, 0x94, 0xa9, 0x97, 0x3d, 0x90, 0x31, 0x02, 0xbe, 0x90, 0x3e, 0x0f, 0x3e, 0x8c, 0xa1, 0x23, 0x3e, 0x81, 0x28, 0x94, 0x3d, 0x2f, 0x85, 0x42, 0xbe, 0x9b, 0x50, 0x9b, 0xbd, 0x68, 0xac, 0x2b, 0x3e, 0x13, 0x9e, 0xbb, 0x3d, 0xc5, 0xc0, 0xa5, 0x3e, 0x60, 0x13, 0x24, 0x3d, 0x6e, 0x71, 0x3b, 0x3d, 0xc0, 0x2f, 0x43, 0xbd, 0x3e, 0xea, 0x11, 0xbe, 0x3f, 0xc2, 0xfe, 0x3c, 0x24, 0x1f, 0x19, 0xbe, 0x14, 0x10, 0xd3, 0xbd, 0x4c, 0xad, 0x0e, 0x3e, 0xe0, 0xc8, 0xa8, 0xbd, 0x49, 0xde, 0x61, 0xbb, 0x67, 0x60, 0x04, 0xbe, 0x74, 0xa1, 0x9e, 0xbd, 0x2a, 0x4d, 0x39, 0x3e, 0xb1, 0x62, 0x87, 0xbc, 0x6b, 0x8d, 0x5d, 0xbe, 0xd3, 0x13, 0xa5, 0x3e, 0xe5, 0x33, 0x11, 0x3e, 0xf3, 0x68, 0x49, 0xbe, 0x1c, 0x0d, 0xad, 0x3d, 0x65, 0x77, 0xf5, 0x3d, 0xca, 0xf2, 0x13, 0x3e, 0x54, 0xb5, 0x71, 0xbe, 0x80, 0xa1, 0xc7, 0xbd, 0xa4, 0x9a, 0x76, 0xbc, 0xdc, 0xc4, 0x1f, 0x3e, 0x76, 0xee, 0x6c, 0xbe, 0x9c, 0x64, 0x5d, 0xbd, 0x4b, 0x26, 0x77, 0x3d, 0xd4, 0xf7, 0x2d, 0xbb, 0x6d, 0x38, 0xe4, 0xbd, 0x13, 0x22, 0xae, 0x3b, 0x75, 0xbb, 0x0f, 0x3d, 0x49, 0x33, 0xb3, 0x3c, 0xf3, 0x00, 0x58, 0xbd, 0xbc, 0xe8, 0xf8, 0xbd, 0x20, 0x5c, 0x12, 0xbd, 0xc1, 0x65, 0x0b, 0x3d, 0x01, 0x9b, 0x23, 0x3e, 0xef, 0x74, 0x66, 0x3c, 0x6d, 0xc7, 0x6c, 0x3e, 0x51, 0x0e, 0x8f, 0xbd, 0x09, 0xd7, 0x00, 0xbd, 0xb4, 0xc2, 0x7d, 0x3c, 0xef, 0x0f, 0xa1, 0x3d, 0x67, 0xcf, 0xcd, 0xbd, 0x94, 0xb8, 0x70, 0x3e, 0xbe, 0xf4, 0x10, 0xbe, 0x51, 0x1d, 0x12, 0x3e, 0xc2, 0xc6, 0xd5, 0xbc, 0x8a, 0x28, 0x9b, 0x3d, 0xad, 0xd0, 0x1e, 0xbb, 0xab, 0x6b, 0xbe, 0xba, 0x2b, 0xd6, 0x1b, 0xbe, 0xcb, 0x78, 0x9d, 0xbe, 0x98, 0x53, 0x78, 0xbd, 0xea, 0xa0, 0x1b, 0xbe, 0x23, 0x82, 0x0c, 0x3e, 0xa5, 0xdd, 0xa8, 0x3d, 0x1c, 0x4a, 0xbc, 0x3d, 0x6b, 0x42, 0x80, 0xbc, 0x6f, 0x91, 0x11, 0xbe, 0xc6, 0xea, 0xf4, 0xbd, 0x5c, 0xd5, 0xbc, 0xbd, 0x2a, 0xc3, 0xaa, 0x3d, 0x67, 0xa4, 0xa1, 0xbc, 0x94, 0xa4, 0x82, 0xbd, 0x84, 0x9c, 0x16, 0xbe, 0x1b, 0x0c, 0x99, 0xbd, 0x05, 0x4b, 0xd5, 0xbc, 0xa0, 0x07, 0x4b, 0xbd, 0x4f, 0x16, 0xe8, 0xbc, 0xd6, 0x55, 0x1c, 0xbe, 0x56, 0xec, 0x72, 0xbe, 0x2d, 0x9e, 0x7b, 0x3e, 0x50, 0x75, 0xaa, 0x3d, 0xd1, 0x33, 0xc7, 0xbd, 0x7a, 0x75, 0xbf, 0x3d, 0xd1, 0x3d, 0xaf, 0x3c, 0x12, 0xf0, 0x0b, 0xbe, 0xb7, 0x7e, 0xb0, 0xbb, 0x5b, 0x79, 0x26, 0x3e, 0xb2, 0x66, 0xa1, 0x3d, 0xfc, 0xc6, 0x95, 0xbd, 0xf1, 0xac, 0x4f, 0x3e, 0xb9, 0x25, 0x35, 0xbd, 0x90, 0x3f, 0x35, 0xbe, 0xa1, 0xe1, 0x4e, 0xbd, 0xe5, 0xf8, 0xf9, 0xbc, 0x05, 0x42, 0x12, 0xbe, 0xe1, 0x3f, 0x87, 0x3b, 0xd4, 0xfe, 0x3b, 0xbe, 0xdf, 0xe1, 0x6f, 0xbe, 0x30, 0xfd, 0x5c, 0xbd, 0xa9, 0xcf, 0x93, 0x3e, 0x2b, 0xe0, 0x4a, 0x3d, 0xb3, 0xcb, 0x79, 0x3d, 0x23, 0x00, 0xf0, 0xbc, 0x5f, 0xeb, 0x57, 0x3d, 0xdc, 0x05, 0x7f, 0x3d, 0x0a, 0x52, 0x32, 0x3e, 0xf9, 0x6f, 0x1f, 0xbe, 0x47, 0x6b, 0x96, 0xbd, 0x5d, 0x2c, 0xeb, 0x3c, 0xf5, 0x65, 0x9d, 0xbc, 0x12, 0x7d, 0x7a, 0x3c, 0x09, 0x10, 0x05, 0xbe, 0x28, 0x20, 0xbe, 0xbd, 0x91, 0x83, 0x88, 0x3c, 0x96, 0x40, 0x8c, 0xbd, 0xc0, 0x3e, 0xe5, 0x3c, 0xc4, 0x15, 0x8b, 0xbd, 0xe1, 0x0b, 0x37, 0xbd, 0x6a, 0xfc, 0x9b, 0x3c, 0x96, 0x26, 0x1a, 0xbe, 0x7e, 0x8a, 0x61, 0xbd, 0xe8, 0x86, 0x01, 0x3e, 0xce, 0x3a, 0x98, 0xbd, 0xa7, 0x16, 0x5e, 0x3e, 0xfa, 0x8e, 0x3e, 0xbe, 0x6b, 0x30, 0x09, 0x3e, 0x33, 0x9d, 0x9b, 0xbc, 0xa0, 0x48, 0x00, 0x3d, 0x82, 0x97, 0xdb, 0x3d, 0x15, 0x03, 0xc2, 0xba, 0xf2, 0xfe, 0x0b, 0x3e, 0x83, 0xc0, 0x12, 0xbe, 0xb9, 0x6d, 0xbe, 0x3c, 0x50, 0x4b, 0xe8, 0xbd, 0x37, 0x2c, 0xba, 0x3c, 0xdf, 0x31, 0x4e, 0x3c, 0xa7, 0x8e, 0x2c, 0xbd, 0x4b, 0x86, 0xd4, 0xbd, 0x60, 0xc8, 0x49, 0x3e, 0x56, 0x85, 0x3f, 0xbe, 0x65, 0x3f, 0xe6, 0xbc, 0x72, 0x22, 0x43, 0x3d, 0x2d, 0x40, 0x46, 0xbd, 0xc9, 0x33, 0x02, 0x3e, 0x8d, 0x3b, 0x30, 0xbb, 0xa4, 0x4b, 0xc6, 0x3d, 0x78, 0x00, 0xdd, 0x3d, 0x66, 0x40, 0x12, 0x3e, 0x38, 0x92, 0x9e, 0x3e, 0xff, 0x1d, 0xad, 0x3d, 0x54, 0xf8, 0x22, 0xbe, 0x83, 0x7e, 0x71, 0xbd, 0xd6, 0xdb, 0xfd, 0x3c, 0x39, 0xf6, 0x5d, 0x3d, 0xe8, 0xbe, 0xea, 0x3d, 0x5f, 0xc1, 0x37, 0xbd, 0x60, 0x7c, 0x41, 0xbc, 0x5c, 0x01, 0x0c, 0x3d, 0x78, 0xf9, 0x16, 0x3e, 0xa9, 0x03, 0x82, 0xbd, 0x7b, 0x0f, 0x6a, 0xbc, 0x36, 0x3c, 0xa3, 0x3c, 0x44, 0x4d, 0x43, 0x3e, 0xf0, 0xd9, 0x3c, 0x3d, 0x32, 0x79, 0x1e, 0x3d, 0x9d, 0x92, 0xc2, 0x3e, 0xcb, 0xd0, 0xba, 0x3c, 0x52, 0xba, 0x07, 0x3e, 0x95, 0x27, 0x0a, 0xbd, 0xe0, 0x59, 0x1e, 0x3e, 0xdf, 0xce, 0x4e, 0x3d, 0x85, 0x1f, 0xc8, 0x3c, 0x87, 0x25, 0xa5, 0x3d, 0x99, 0x31, 0x1f, 0x3e, 0xde, 0x3c, 0x12, 0xbc, 0x01, 0x20, 0x96, 0x3c, 0x40, 0x64, 0xc4, 0xbd, 0xee, 0x81, 0xe3, 0xbc, 0x0a, 0xed, 0xff, 0xff, 0x04, 0x00, 0x00, 0x00, 0x40, 0x06, 0x00, 0x00, 0xd0, 0x17, 0xa1, 0x3d, 0xf0, 0x64, 0xae, 0x3c, 0xfe, 0xb2, 0x73, 0xbe, 0x60, 0x5b, 0x94, 0x3c, 0xc8, 0xbf, 0xcb, 0x3d, 0x10, 0xd1, 0x3d, 0x3d, 0xa4, 0x02, 0x1e, 0xbe, 0x8f, 0x0a, 0xbe, 0x3d, 0x85, 0x6a, 0xcf, 0xbd, 0x69, 0xdf, 0x0b, 0x3e, 0xe5, 0x65, 0xb5, 0xbd, 0x69, 0x25, 0x80, 0xbc, 0x87, 0xc4, 0xac, 0x3b, 0x95, 0x93, 0xf8, 0x3b, 0xd1, 0x60, 0xce, 0xbb, 0x2c, 0x1f, 0x58, 0xbd, 0xd6, 0x2a, 0x96, 0xbd, 0x70, 0x0e, 0x34, 0xbe, 0xf1, 0x8c, 0x90, 0xbc, 0x08, 0xe7, 0x0a, 0x3d, 0x6e, 0x01, 0x31, 0xbe, 0xd8, 0x4c, 0x35, 0xbe, 0xf7, 0xc2, 0x1d, 0x3e, 0x3c, 0x96, 0x26, 0x3d, 0x9e, 0x68, 0xac, 0xbd, 0x8b, 0x8f, 0xce, 0x3d, 0xc8, 0x97, 0xc8, 0x3d, 0x47, 0x7e, 0x58, 0xbe, 0xa8, 0xd9, 0x71, 0xbd, 0xea, 0x16, 0x1b, 0xbd, 0xee, 0xc9, 0x8a, 0x3c, 0x1f, 0xfe, 0x70, 0x3d, 0xb5, 0xe1, 0x77, 0xbe, 0x5c, 0x10, 0xa3, 0xbd, 0x95, 0x84, 0x51, 0x3c, 0xbd, 0xc4, 0x2d, 0x3e, 0x89, 0xc8, 0xc4, 0x3d, 0x34, 0x44, 0x1f, 0xbe, 0xbb, 0x71, 0x96, 0x3d, 0x18, 0xdd, 0x5a, 0x3d, 0xc4, 0x44, 0xb1, 0x3d, 0xfb, 0xd7, 0xd8, 0xbd, 0x25, 0x2c, 0xb2, 0xbc, 0xd2, 0x3c, 0x13, 0xbd, 0x03, 0x7c, 0xae, 0x3d, 0x5b, 0xa7, 0x42, 0xbd, 0x75, 0x49, 0x5a, 0x3e, 0x6a, 0x92, 0x3c, 0xbe, 0xd6, 0x2f, 0xf3, 0xbd, 0x35, 0x43, 0x15, 0x3d, 0x71, 0x87, 0xf0, 0x3d, 0x05, 0xd4, 0x42, 0x3d, 0xeb, 0xe7, 0x0a, 0x3e, 0x3e, 0x6b, 0xb3, 0xbd, 0x5f, 0xfb, 0x92, 0xbc, 0x76, 0xcf, 0xf4, 0x3b, 0x84, 0x46, 0x98, 0xbd, 0xfb, 0x29, 0xf5, 0x3b, 0xb0, 0xac, 0x6c, 0xbd, 0x6b, 0xb5, 0x8a, 0x3d, 0xd8, 0xea, 0x8a, 0xbc, 0x4a, 0x4b, 0xb7, 0x3c, 0x31, 0x29, 0xfd, 0x3c, 0x1c, 0x28, 0x32, 0x3d, 0x37, 0x2f, 0x4c, 0x3d, 0xe9, 0xe6, 0xb2, 0xbd, 0x81, 0x4e, 0x86, 0x3e, 0x11, 0xdf, 0x98, 0xbd, 0x63, 0xd3, 0xcc, 0xba, 0x13, 0x6d, 0xb3, 0x3d, 0x0b, 0x57, 0x61, 0xbd, 0x11, 0xb6, 0xea, 0xbd, 0x63, 0xe7, 0xc3, 0x3b, 0xcf, 0xe1, 0x38, 0x3d, 0x1e, 0xad, 0x8c, 0x3d, 0x21, 0xc9, 0xbb, 0xbd, 0x6c, 0x49, 0xab, 0xbd, 0xa7, 0x5f, 0x2a, 0xbd, 0x2f, 0x13, 0x3f, 0x3d, 0x94, 0xfa, 0xad, 0x3d, 0xc2, 0x36, 0x3d, 0x3e, 0x69, 0xfd, 0x3e, 0xbe, 0x35, 0xfe, 0x2e, 0x3e, 0x81, 0xf4, 0x08, 0x3c, 0x5d, 0xb8, 0xa6, 0xbd, 0xe7, 0x6c, 0x85, 0xbc, 0x82, 0x77, 0x58, 0x3d, 0x75, 0x13, 0x77, 0xbd, 0x39, 0xe2, 0x9b, 0x3d, 0x68, 0xf2, 0xde, 0xbd, 0x24, 0xfb, 0x57, 0xbd, 0xad, 0xdd, 0x0e, 0x3e, 0x24, 0xe4, 0x2d, 0x3d, 0xa1, 0xd9, 0x04, 0x3d, 0xe9, 0x60, 0xe6, 0xbd, 0x37, 0x25, 0xbc, 0x3c, 0x68, 0x29, 0xbc, 0x3d, 0x11, 0x35, 0x68, 0x3e, 0xcb, 0xdb, 0x0c, 0x3d, 0x58, 0x87, 0xcf, 0xbd, 0xc9, 0xab, 0x25, 0xbe, 0xcb, 0xd4, 0x7a, 0xbe, 0x0c, 0xf2, 0xfb, 0xbb, 0x5d, 0xd2, 0x40, 0xbd, 0xb5, 0x98, 0x0c, 0xbd, 0xa3, 0xc2, 0xb4, 0xbd, 0xde, 0x42, 0xe6, 0xbd, 0xf5, 0x87, 0xd6, 0x3d, 0xdb, 0x97, 0x07, 0x3e, 0x49, 0xbf, 0x39, 0x3d, 0xda, 0x06, 0x44, 0xbe, 0xca, 0x0e, 0x8b, 0x3e, 0xad, 0x3a, 0xba, 0x3d, 0xfd, 0x59, 0x11, 0x3d, 0x5c, 0x60, 0xf4, 0x3d, 0x43, 0x1a, 0x9f, 0xbd, 0xfc, 0x90, 0x80, 0xbe, 0x2d, 0x95, 0xfe, 0x3b, 0xa8, 0x31, 0x8e, 0xbe, 0xc8, 0x47, 0xb4, 0x3b, 0xba, 0xf1, 0x93, 0xbe, 0x72, 0x75, 0x06, 0x3d, 0xca, 0x4f, 0x36, 0x3d, 0xd4, 0x45, 0x40, 0xbe, 0x7d, 0x41, 0x40, 0xbd, 0x13, 0x46, 0x5b, 0xbd, 0x0f, 0x0f, 0x3a, 0x3d, 0xdd, 0xdd, 0xbe, 0x3d, 0x11, 0xa1, 0x13, 0xbc, 0x2d, 0x53, 0x79, 0xbe, 0xc5, 0x80, 0xd8, 0xbd, 0x7a, 0x78, 0xc2, 0x3c, 0x02, 0x9a, 0xb7, 0xbd, 0xa9, 0x00, 0x43, 0xbb, 0x51, 0xb3, 0x3d, 0x3e, 0x77, 0x83, 0x43, 0x3e, 0xc0, 0x22, 0x10, 0xbe, 0xaf, 0xc0, 0x54, 0xbe, 0xf3, 0x79, 0xc4, 0xbd, 0x28, 0x7c, 0x4d, 0xbe, 0x34, 0x82, 0x25, 0x3d, 0xc9, 0x81, 0x95, 0xbd, 0x75, 0xe3, 0x9f, 0x3c, 0x1e, 0x9f, 0x3c, 0x3e, 0x1f, 0x49, 0x73, 0xbe, 0xbb, 0x31, 0x1a, 0xbe, 0xb0, 0x2a, 0x98, 0x3c, 0xa0, 0x40, 0x08, 0xbe, 0xad, 0x7d, 0x90, 0xbd, 0x1f, 0xc8, 0x87, 0x3e, 0x11, 0x77, 0x96, 0x3d, 0x28, 0x15, 0x88, 0x3d, 0xd2, 0xcd, 0x61, 0xbd, 0x75, 0x91, 0x02, 0xbd, 0x4d, 0x6b, 0xb2, 0xbd, 0xb0, 0x0c, 0x4d, 0x3d, 0x23, 0xf4, 0x10, 0x3d, 0x9c, 0xaa, 0x42, 0x3e, 0xca, 0xba, 0x97, 0x3e, 0xd6, 0xed, 0x12, 0x3e, 0x54, 0x03, 0x2e, 0xbe, 0x1f, 0xe7, 0x22, 0xbe, 0x7f, 0x35, 0xbe, 0xbe, 0xfe, 0x27, 0xac, 0x3e, 0x9d, 0x77, 0xc8, 0xbd, 0x05, 0xc6, 0xb2, 0x3c, 0x39, 0x5b, 0xab, 0x3d, 0x9a, 0xbf, 0x99, 0xbe, 0x56, 0x86, 0xd5, 0xbd, 0x6e, 0xf1, 0x95, 0x3b, 0x95, 0xfb, 0x9c, 0x3b, 0x8e, 0xbe, 0x69, 0xbe, 0x30, 0x18, 0xf2, 0xbb, 0x95, 0xae, 0x46, 0x3e, 0x38, 0xc6, 0x97, 0xbd, 0x5f, 0xf6, 0xc1, 0xbd, 0x30, 0xb6, 0xa9, 0x3d, 0xc6, 0x7b, 0xdd, 0x3d, 0xd7, 0xa0, 0x21, 0x3e, 0x65, 0xd9, 0x0b, 0xbd, 0xb7, 0x0e, 0x2d, 0xbd, 0xe5, 0x54, 0xa3, 0x3d, 0x5c, 0xc2, 0xc9, 0x3d, 0x43, 0x88, 0x2b, 0x3b, 0x17, 0x83, 0x77, 0xbe, 0x39, 0xc7, 0x0b, 0x3e, 0x75, 0x9d, 0x0e, 0x3e, 0x08, 0xa3, 0xf1, 0xbb, 0x5c, 0x0c, 0xb4, 0xbd, 0xae, 0x97, 0xf8, 0xbd, 0x6a, 0xb9, 0x20, 0x3d, 0x68, 0x21, 0x7d, 0x3d, 0xd3, 0xa0, 0x89, 0x3e, 0xa5, 0x20, 0x1b, 0xbd, 0xe7, 0xd5, 0x5f, 0x3d, 0x8d, 0x30, 0xad, 0x3d, 0xc7, 0xc3, 0x04, 0x3e, 0x1b, 0x9c, 0xba, 0x3d, 0xc9, 0x13, 0xf2, 0x3d, 0x1f, 0xaa, 0x2c, 0x3e, 0x83, 0x73, 0xf8, 0x3d, 0xc1, 0x99, 0x28, 0xbe, 0xb2, 0x6a, 0x86, 0x3d, 0x27, 0x29, 0x45, 0xbd, 0xe6, 0x25, 0x4c, 0x3d, 0x28, 0xfe, 0x78, 0xbd, 0x84, 0xcb, 0xd5, 0x3c, 0x0f, 0xcf, 0x26, 0xbc, 0xf3, 0x09, 0x93, 0xbc, 0x59, 0x6f, 0x24, 0xbe, 0x66, 0xff, 0x26, 0xbe, 0xb3, 0x5b, 0xc8, 0xbc, 0xae, 0xfb, 0xf8, 0x3d, 0xf3, 0xf8, 0x19, 0xbe, 0x92, 0x1b, 0x90, 0xbd, 0x9f, 0x1c, 0xb0, 0xbc, 0xc2, 0xb2, 0x27, 0xbe, 0x5b, 0xe8, 0x60, 0x3d, 0xff, 0x23, 0xa2, 0x3d, 0x24, 0x2a, 0x73, 0xbe, 0xf6, 0xaf, 0x1d, 0xbe, 0xc5, 0xbe, 0xdf, 0xbd, 0x3d, 0xa7, 0xcf, 0xbd, 0xfa, 0x4c, 0xb8, 0xbd, 0x1e, 0x8b, 0x32, 0x3c, 0xd5, 0x31, 0xa8, 0x3d, 0xbb, 0x92, 0x82, 0xbd, 0x74, 0x9d, 0x20, 0xbe, 0xc4, 0xa5, 0x85, 0x3d, 0x10, 0x31, 0xd9, 0xbc, 0x97, 0x27, 0x5a, 0xbd, 0x04, 0x53, 0xd1, 0xbd, 0xc2, 0x10, 0x7a, 0x3e, 0xa4, 0x37, 0x75, 0xbe, 0x3c, 0x5a, 0x24, 0x3e, 0xf0, 0x3d, 0x28, 0x3d, 0xf9, 0xfe, 0x5a, 0x3e, 0x9b, 0xd1, 0x82, 0xbe, 0xfd, 0x6b, 0x05, 0x3e, 0x0a, 0x04, 0x13, 0x3e, 0xe6, 0xae, 0x19, 0x3e, 0x2c, 0x42, 0xd0, 0x3c, 0xf9, 0x6c, 0x31, 0xbd, 0x5f, 0x08, 0x66, 0xbd, 0x8a, 0x6d, 0x32, 0xbd, 0x82, 0xdc, 0x4a, 0xbd, 0xfa, 0xbe, 0x0c, 0x3e, 0x99, 0xeb, 0x16, 0xbc, 0xf5, 0xe2, 0x0b, 0x3c, 0x64, 0xb8, 0xe6, 0x3d, 0x86, 0xb4, 0xd1, 0x3c, 0xec, 0xd7, 0xc4, 0x3d, 0x26, 0x27, 0x9b, 0x3d, 0xe5, 0x8d, 0xe6, 0xbd, 0xe9, 0x31, 0x1a, 0x3e, 0x79, 0xf3, 0x7c, 0x3d, 0xce, 0x2e, 0x81, 0xbc, 0x68, 0x0d, 0xd9, 0xbd, 0xcd, 0x18, 0x0f, 0x3d, 0x89, 0xd5, 0x04, 0x3e, 0x5e, 0x9d, 0xf9, 0xbd, 0xaf, 0xc0, 0x12, 0x3e, 0xdf, 0x80, 0x27, 0x3c, 0xfb, 0xbd, 0x46, 0x3d, 0xf0, 0x1b, 0x97, 0x3d, 0xca, 0x65, 0x47, 0xbd, 0x8c, 0xf9, 0xed, 0x3d, 0xc7, 0xf0, 0xdf, 0x3d, 0x4f, 0xcc, 0x87, 0xbd, 0x69, 0xbd, 0x32, 0xbd, 0xd1, 0x19, 0xf1, 0xbc, 0xc4, 0xee, 0x12, 0x3e, 0x81, 0xea, 0x6b, 0x3d, 0xb6, 0xe2, 0xbf, 0xbd, 0xa6, 0xa3, 0x22, 0x3e, 0xa1, 0xd5, 0x3d, 0xbd, 0x63, 0x70, 0x7d, 0xbe, 0xc6, 0x0e, 0xc8, 0x3d, 0x72, 0x02, 0x28, 0xbe, 0x46, 0x61, 0xdb, 0x3d, 0xdb, 0xbc, 0x15, 0xbe, 0xbe, 0x32, 0x5d, 0x3e, 0xd6, 0x6c, 0x19, 0x3e, 0x7f, 0x71, 0x39, 0x3e, 0xcd, 0xd0, 0x4e, 0x3e, 0xb1, 0xad, 0xa1, 0xbc, 0x29, 0xb8, 0x83, 0xbe, 0xf8, 0xf2, 0x67, 0x39, 0x2d, 0x5e, 0x06, 0x3e, 0xe5, 0x60, 0x34, 0x3b, 0xe6, 0x6c, 0x6d, 0xbd, 0xca, 0x8c, 0x20, 0x3e, 0x5b, 0x41, 0x7f, 0xbd, 0x05, 0x82, 0x6c, 0xbd, 0x67, 0x20, 0x47, 0xbd, 0xa1, 0xa7, 0x8d, 0xbd, 0x4c, 0x7d, 0x87, 0xbe, 0x98, 0x64, 0x3d, 0xbd, 0x10, 0x6f, 0x84, 0xbe, 0x19, 0x8e, 0x2c, 0xbe, 0x8d, 0x6b, 0x3b, 0xbd, 0x42, 0x79, 0x51, 0x3e, 0xa6, 0x48, 0xd1, 0xbc, 0xae, 0x6a, 0x5a, 0xbc, 0x09, 0x1a, 0xd3, 0x3e, 0x59, 0x21, 0x97, 0x3d, 0xab, 0xde, 0x09, 0xbe, 0xd1, 0xc8, 0x15, 0x3e, 0xcf, 0x76, 0x53, 0x3d, 0x30, 0xbf, 0xf7, 0xbd, 0xd7, 0xf4, 0x32, 0x3e, 0x59, 0x71, 0x7b, 0x3e, 0x44, 0xfe, 0x8f, 0xbd, 0x16, 0x94, 0x86, 0xbd, 0x2c, 0xc4, 0x7f, 0x3c, 0x94, 0x36, 0xa4, 0xbd, 0x68, 0xb1, 0x84, 0xbd, 0x8b, 0xfb, 0xc6, 0x3d, 0x3f, 0xf5, 0x2a, 0x3e, 0x27, 0xa9, 0xb7, 0xbd, 0x0a, 0x1b, 0xe3, 0x3d, 0x72, 0x8b, 0xff, 0xbd, 0x3f, 0xc0, 0x44, 0x3d, 0x7f, 0xb6, 0xef, 0xbd, 0xa8, 0xbb, 0xcf, 0xbc, 0x1f, 0xc6, 0xef, 0x3d, 0xd8, 0xc5, 0x49, 0x3d, 0x5c, 0xa7, 0x45, 0x3e, 0x31, 0x16, 0x2b, 0x3d, 0x8f, 0x54, 0xd3, 0x3d, 0x47, 0x2f, 0x87, 0x3d, 0x51, 0x54, 0x78, 0x3d, 0x74, 0x8c, 0x0d, 0xbe, 0x70, 0xc2, 0x68, 0xbd, 0x71, 0x68, 0xa3, 0xbe, 0x38, 0x2b, 0x05, 0x3d, 0xfe, 0xe0, 0x34, 0xbe, 0x34, 0x49, 0xc9, 0x3d, 0x55, 0xdd, 0x50, 0xbd, 0xf2, 0x2b, 0x0a, 0x3e, 0x75, 0x0c, 0xd1, 0x3b, 0xa5, 0x93, 0x61, 0xbd, 0xff, 0x14, 0x7b, 0x3e, 0x25, 0xbe, 0x4a, 0xbe, 0x8f, 0x67, 0x5a, 0x3d, 0xc5, 0x06, 0x83, 0xbd, 0x2e, 0x04, 0x1a, 0x3d, 0xa2, 0x73, 0x37, 0x3e, 0xba, 0xaa, 0xfa, 0x3c, 0x8d, 0x0d, 0xc3, 0x3d, 0x9c, 0xa0, 0x4e, 0xbe, 0x4c, 0x52, 0x8e, 0x3d, 0x39, 0x6b, 0xb8, 0x3d, 0x24, 0x15, 0xd1, 0xbd, 0x58, 0x48, 0x9c, 0x3d, 0x42, 0xfb, 0xc0, 0xbd, 0x65, 0xd1, 0x33, 0xbe, 0xf2, 0x48, 0xd4, 0x3d, 0x85, 0x3b, 0xd1, 0xbd, 0x9d, 0x81, 0xa7, 0x3c, 0x78, 0x63, 0x47, 0x3a, 0x9f, 0xdd, 0xe7, 0x3d, 0xfa, 0x2f, 0x81, 0xbd, 0x92, 0xa3, 0xaa, 0xbd, 0x6c, 0x74, 0x9e, 0xbd, 0xa1, 0x12, 0x2a, 0xbd, 0x60, 0x7b, 0xd3, 0xbd, 0x3c, 0x27, 0x10, 0x3e, 0x4c, 0x56, 0x32, 0x3c, 0x22, 0x61, 0x48, 0x3a, 0x4e, 0x12, 0xc8, 0xbd, 0xf1, 0x4e, 0x00, 0x3e, 0xff, 0x50, 0xf0, 0x3d, 0x59, 0x25, 0x10, 0xbe, 0x62, 0x52, 0xa2, 0xbd, 0x0c, 0x4c, 0x51, 0xbe, 0x78, 0xc3, 0x9c, 0xbd, 0x4f, 0xc2, 0xbd, 0xbd, 0x65, 0xeb, 0xa4, 0xbd, 0x56, 0x9f, 0x3c, 0x3e, 0x1f, 0x3d, 0xc9, 0x3d, 0xd0, 0xdd, 0x26, 0xb7, 0x7b, 0xc6, 0x23, 0xbe, 0x0c, 0x39, 0xff, 0xbd, 0x36, 0x91, 0xa6, 0xbd, 0x1f, 0x89, 0x4a, 0xbd, 0xa4, 0xfd, 0xbc, 0xbd, 0xe6, 0x41, 0x73, 0x3d, 0xa3, 0x23, 0x57, 0xbd, 0x96, 0xad, 0xab, 0xbd, 0xe7, 0x10, 0xfe, 0x3b, 0xde, 0xad, 0x17, 0x3e, 0x48, 0xc6, 0x82, 0x3d, 0xfc, 0x92, 0xeb, 0x3d, 0x1b, 0xb2, 0x82, 0x3d, 0x83, 0x7f, 0x87, 0x3d, 0x50, 0x9d, 0xad, 0xbc, 0x73, 0xad, 0x15, 0xbd, 0x70, 0xe8, 0x60, 0xbe, 0xf7, 0xc8, 0xde, 0xbd, 0x56, 0xf3, 0xff, 0xff, 0x04, 0x00, 0x00, 0x00, 0x40, 0x06, 0x00, 0x00, 0x58, 0x9c, 0xb8, 0xbd, 0x45, 0xb9, 0x6f, 0x3b, 0x89, 0xf6, 0x19, 0x3d, 0xf9, 0x4f, 0xf5, 0xbd, 0xa6, 0x12, 0x89, 0x3d, 0x74, 0xef, 0x1b, 0xbc, 0xbb, 0xd9, 0xdb, 0x3d, 0x4c, 0x76, 0x01, 0x3f, 0xc2, 0x82, 0x1b, 0xbe, 0x6a, 0x94, 0x6c, 0xbc, 0xd7, 0x55, 0x96, 0xbd, 0x53, 0x66, 0xe1, 0xbd, 0x30, 0xb7, 0xe5, 0x3a, 0x95, 0xba, 0xa3, 0xbd, 0x38, 0x93, 0xc6, 0xbd, 0xa3, 0x29, 0x2c, 0xbe, 0x69, 0xee, 0x38, 0xbe, 0xe9, 0x5e, 0xa8, 0xbe, 0xa6, 0x49, 0xec, 0xbd, 0x73, 0x3d, 0x97, 0xbd, 0x4a, 0xe7, 0x84, 0xbd, 0x06, 0x6e, 0x7e, 0x3d, 0xfc, 0xcb, 0xd1, 0x3d, 0x7b, 0xc9, 0x4a, 0x3b, 0xfa, 0x00, 0x63, 0x3e, 0x13, 0x6e, 0x1f, 0xbe, 0x6e, 0x5e, 0x81, 0xbd, 0x95, 0xa5, 0xc8, 0x3e, 0x59, 0xc7, 0x0e, 0xbe, 0x8b, 0x50, 0x5a, 0xbe, 0x2e, 0xdd, 0x08, 0xbe, 0xf9, 0xe8, 0x3e, 0x3e, 0x41, 0xdb, 0xf6, 0xbb, 0x27, 0xa1, 0x3a, 0xbe, 0xe8, 0x27, 0xea, 0xbc, 0x75, 0xc5, 0x34, 0xbd, 0x7f, 0x60, 0x2d, 0xbe, 0x3d, 0x15, 0x9f, 0x3d, 0x40, 0xc1, 0x8a, 0xbc, 0x32, 0x8c, 0x4d, 0x3d, 0xb4, 0xc8, 0x6b, 0xbe, 0xaf, 0x0e, 0x4f, 0x3c, 0x88, 0x03, 0xd5, 0x3d, 0x92, 0x83, 0x38, 0x3d, 0x40, 0x51, 0x0a, 0x3e, 0x03, 0xea, 0xe1, 0x3d, 0x4d, 0x71, 0xb8, 0xba, 0x9e, 0x81, 0x20, 0x3f, 0x4b, 0x92, 0x50, 0x3e, 0x54, 0x37, 0xa8, 0xbd, 0x3d, 0xbf, 0x46, 0xbe, 0xef, 0x73, 0x06, 0x3e, 0x4c, 0x8d, 0x8f, 0xbd, 0xbd, 0x7f, 0x04, 0xbe, 0x58, 0x97, 0x07, 0x3e, 0xb3, 0x5b, 0x0f, 0xbd, 0x68, 0x86, 0x9e, 0xbd, 0xa8, 0x9e, 0x9b, 0xbd, 0xda, 0x50, 0x4a, 0xbd, 0x60, 0x37, 0x60, 0xbe, 0x95, 0xe6, 0x8e, 0xbd, 0xa8, 0xac, 0x0d, 0x3e, 0xec, 0x3b, 0x89, 0x3c, 0x3f, 0xc0, 0xef, 0xbd, 0xce, 0x95, 0xa9, 0xbc, 0xcb, 0x3f, 0x35, 0xbe, 0x0f, 0xa9, 0xfe, 0xbd, 0xc5, 0x3b, 0x91, 0xbd, 0x98, 0x29, 0x5c, 0xbd, 0x8e, 0x4f, 0x14, 0xbe, 0x84, 0x4e, 0x70, 0xbe, 0x37, 0xfb, 0xba, 0x3d, 0x23, 0x40, 0x1b, 0xbd, 0x30, 0x40, 0x80, 0xbd, 0xc6, 0x96, 0x0c, 0xbd, 0xf1, 0xe9, 0xae, 0xbd, 0xdf, 0x86, 0x05, 0xbe, 0x10, 0x73, 0xa3, 0xbd, 0x4f, 0x3b, 0x0b, 0x3d, 0x4b, 0xae, 0xe3, 0xbd, 0xf8, 0x2f, 0x5b, 0xbc, 0x5d, 0x74, 0x63, 0x3e, 0x90, 0x38, 0x59, 0x3e, 0x22, 0x51, 0xed, 0xbd, 0xc2, 0xa0, 0x35, 0x3e, 0x1c, 0x39, 0xa2, 0x3d, 0x6d, 0xeb, 0x0c, 0x3d, 0x49, 0x8a, 0x80, 0x3e, 0xc3, 0x74, 0x75, 0x3b, 0x21, 0x9d, 0x9f, 0xbd, 0xaa, 0x6c, 0x5e, 0xbd, 0x66, 0x12, 0x8d, 0x3e, 0xcd, 0x28, 0x91, 0x3a, 0xfa, 0x8f, 0x1c, 0x3d, 0xd3, 0x75, 0x0a, 0xbd, 0xf5, 0xe1, 0x10, 0xbd, 0x96, 0x3a, 0x96, 0x3d, 0x1d, 0x07, 0x42, 0xbe, 0x2d, 0xfd, 0x67, 0xbc, 0xab, 0x37, 0xd2, 0xbd, 0x60, 0x0f, 0x1b, 0xbe, 0x85, 0xf1, 0x13, 0x3d, 0xce, 0xff, 0xcf, 0x3d, 0x5b, 0x2f, 0xdd, 0xbc, 0x1f, 0x88, 0xa6, 0x3d, 0x02, 0x95, 0x93, 0xbe, 0x6e, 0xc9, 0x04, 0xbd, 0x6e, 0x40, 0x73, 0x3e, 0xc7, 0x27, 0xb4, 0xbc, 0xb7, 0xdb, 0xa1, 0x3d, 0x5f, 0x4d, 0xa1, 0x3c, 0x65, 0x88, 0x94, 0x3e, 0x45, 0x4c, 0x8a, 0x3c, 0x9b, 0xcb, 0x9c, 0xbd, 0xe3, 0x1a, 0x8a, 0xbe, 0x1b, 0x3b, 0xe0, 0xbd, 0xed, 0xa2, 0x6c, 0xbb, 0x45, 0xf2, 0x34, 0xbe, 0xa2, 0x90, 0xa3, 0xbe, 0xed, 0x22, 0x12, 0xbe, 0xba, 0xc7, 0xc8, 0xbd, 0xbe, 0xeb, 0x50, 0x3d, 0xfc, 0xdd, 0x3c, 0x3e, 0xee, 0x56, 0x0a, 0xbe, 0xcd, 0xdb, 0x2a, 0x3e, 0x9c, 0x4a, 0x89, 0xbc, 0x95, 0x7b, 0xff, 0xbd, 0x20, 0xe8, 0xd9, 0x3d, 0xa1, 0xf9, 0x7f, 0x3e, 0xe8, 0x57, 0xaa, 0xbe, 0x93, 0x36, 0x24, 0x3d, 0x47, 0xeb, 0x42, 0x3e, 0x6b, 0x1b, 0x00, 0x3d, 0x6a, 0xf2, 0x29, 0xbe, 0xb7, 0xab, 0xc2, 0xbb, 0x9d, 0xb0, 0xdc, 0xbd, 0xe3, 0xce, 0x0b, 0xbe, 0x9b, 0xf7, 0x05, 0xbe, 0x1e, 0x86, 0xba, 0x3c, 0x76, 0x86, 0xd1, 0xbd, 0xe3, 0xa2, 0xf4, 0xbd, 0xf6, 0x41, 0x00, 0x3f, 0x58, 0xa6, 0xb2, 0x3e, 0x40, 0x55, 0xfa, 0xbe, 0x9b, 0xcf, 0x86, 0x3e, 0xa8, 0x7e, 0x8e, 0xbe, 0x42, 0x86, 0x54, 0xbe, 0x87, 0xc5, 0x5d, 0x3e, 0xe6, 0x5b, 0x23, 0x3d, 0x7a, 0xd0, 0xe2, 0xbe, 0xee, 0xc8, 0xc7, 0x3d, 0x4a, 0x3c, 0xd8, 0x3e, 0x68, 0x9e, 0x08, 0xbf, 0x64, 0x06, 0xf7, 0xbe, 0x92, 0x9b, 0x2e, 0x3d, 0xfd, 0xa9, 0xab, 0xbe, 0xd5, 0x44, 0x2a, 0xbf, 0xf8, 0xa3, 0x07, 0xbf, 0xb8, 0x8d, 0x50, 0xbe, 0xae, 0x48, 0xfb, 0xbe, 0xf0, 0xe6, 0x6a, 0xbd, 0x5d, 0x21, 0x28, 0x3e, 0xcb, 0xb1, 0x1d, 0x3e, 0x40, 0x1f, 0x15, 0xbe, 0xeb, 0x07, 0x5b, 0x3c, 0x39, 0xe5, 0x5d, 0xbe, 0xa8, 0x89, 0x2c, 0xbd, 0xcf, 0x79, 0xb0, 0x3d, 0xb3, 0x48, 0x90, 0x3c, 0xf0, 0x78, 0x6d, 0x3d, 0x7e, 0x47, 0x50, 0xbe, 0x44, 0x85, 0x73, 0x3e, 0xfe, 0x4e, 0x60, 0x3d, 0x8a, 0xd2, 0xe1, 0xbc, 0xf3, 0xe0, 0x9f, 0x3c, 0x63, 0xc5, 0x4c, 0xbe, 0x19, 0x29, 0x9b, 0xbc, 0xe5, 0xdd, 0x6f, 0xbd, 0xb2, 0x62, 0x3f, 0xbe, 0x68, 0x71, 0xdd, 0xbd, 0xe9, 0x16, 0x38, 0xbd, 0x42, 0x85, 0x20, 0xbe, 0xdc, 0x55, 0x0f, 0x3e, 0xcd, 0x0c, 0xdf, 0xbd, 0xa2, 0x5f, 0xe2, 0xbc, 0xc7, 0xc8, 0x0c, 0xbe, 0x9f, 0x7f, 0x93, 0xbe, 0x75, 0xd3, 0x93, 0x3e, 0x8c, 0x6c, 0xf7, 0x3b, 0x2f, 0xe5, 0xa2, 0x3c, 0xd8, 0xcf, 0x8c, 0xba, 0x7c, 0x06, 0x3e, 0xbd, 0x6c, 0xed, 0xd8, 0x3c, 0x19, 0x22, 0x87, 0x3d, 0xb0, 0x44, 0x79, 0x3d, 0xce, 0xad, 0x79, 0xbd, 0x12, 0x9a, 0x80, 0xbe, 0x86, 0x9b, 0xaf, 0xbd, 0x89, 0xf9, 0xc5, 0xbd, 0xd6, 0xca, 0xd4, 0x3d, 0x84, 0x6a, 0x00, 0x3d, 0x99, 0x7e, 0xb1, 0x3b, 0x41, 0xdf, 0x74, 0xbd, 0x00, 0x3e, 0xd5, 0x3c, 0xcf, 0xfd, 0xc4, 0xbc, 0x4f, 0x88, 0x75, 0xbd, 0xca, 0xdf, 0x0b, 0x3c, 0xd2, 0xa7, 0x2d, 0x3d, 0xf4, 0xab, 0x56, 0x3e, 0x79, 0x9a, 0x86, 0x3d, 0x79, 0x75, 0xb2, 0xbe, 0x46, 0xf1, 0x85, 0x3c, 0xbc, 0x8a, 0x83, 0xbe, 0x75, 0x07, 0xff, 0xbd, 0x08, 0xbc, 0x09, 0xbd, 0xab, 0xbf, 0x09, 0xbd, 0xcc, 0x48, 0x44, 0x3d, 0xfa, 0xaf, 0x67, 0xbe, 0xef, 0x2f, 0x23, 0xbb, 0xe2, 0xae, 0x9b, 0xbc, 0x01, 0x60, 0x3f, 0x3e, 0x1d, 0x29, 0x15, 0x3e, 0x1a, 0x88, 0xe6, 0x3c, 0xb6, 0x10, 0xe8, 0xbd, 0x12, 0x45, 0xd0, 0xbd, 0x6c, 0x46, 0x0e, 0x3d, 0x71, 0xc3, 0x3c, 0xbe, 0x89, 0x03, 0xbc, 0x3e, 0x4c, 0x41, 0x4c, 0xbd, 0x53, 0xcf, 0x04, 0xbe, 0xa7, 0x98, 0xd5, 0xbd, 0xe5, 0x34, 0xa9, 0x3c, 0x30, 0x0a, 0x5c, 0x3c, 0x47, 0x9d, 0xed, 0xbb, 0x01, 0x32, 0x87, 0xbd, 0xa5, 0x65, 0xb7, 0x3d, 0x1e, 0x27, 0x0d, 0xbe, 0xf0, 0x14, 0x13, 0x3d, 0x41, 0x36, 0x3b, 0xbe, 0x01, 0x9c, 0x6a, 0xbd, 0x24, 0x79, 0x03, 0x3c, 0x9a, 0x34, 0x09, 0x3e, 0x49, 0x62, 0x3a, 0x3d, 0xfe, 0x19, 0xb8, 0xbd, 0x98, 0xb8, 0xd2, 0xbc, 0x5a, 0x0b, 0xda, 0xbc, 0x16, 0xed, 0xfa, 0xbd, 0xd4, 0x17, 0x41, 0xbc, 0x57, 0xc3, 0x71, 0x3c, 0x05, 0x79, 0xe0, 0xbd, 0x5d, 0x1b, 0xf1, 0xbb, 0xb1, 0x96, 0x51, 0xbe, 0x47, 0x81, 0x36, 0xbe, 0xcf, 0x15, 0x01, 0xbe, 0x8d, 0x7d, 0xfc, 0xbb, 0x24, 0xc8, 0xf9, 0xbd, 0x73, 0x07, 0x90, 0xbd, 0x28, 0x15, 0x91, 0x3d, 0xb0, 0xe1, 0x0c, 0x3e, 0x8d, 0x03, 0xf4, 0x39, 0x47, 0xca, 0x95, 0xbc, 0xe7, 0xb2, 0xef, 0x3d, 0xaa, 0x78, 0xb7, 0xbd, 0x2a, 0xed, 0x7c, 0xbe, 0x59, 0x6c, 0x15, 0x3e, 0xf3, 0xd8, 0x33, 0xbc, 0x79, 0xf3, 0x50, 0xbd, 0x0b, 0x8c, 0x8c, 0x3d, 0xa9, 0x82, 0xa2, 0xbd, 0x5e, 0xa9, 0x67, 0xbe, 0x9e, 0xcf, 0xbe, 0x3d, 0x48, 0x76, 0xc9, 0x3d, 0xaf, 0xc9, 0xb1, 0xbd, 0x14, 0x90, 0x24, 0xbe, 0xa5, 0x97, 0x22, 0x3d, 0x38, 0x8e, 0xd5, 0xbd, 0x88, 0x33, 0x0c, 0xbe, 0x1b, 0x25, 0xe9, 0xbd, 0xc0, 0xcd, 0x88, 0xbe, 0xd0, 0x89, 0xf6, 0xbd, 0x2b, 0x17, 0x65, 0xbe, 0x97, 0xc4, 0x43, 0x3e, 0x44, 0xe3, 0x05, 0x3e, 0x69, 0x32, 0x2c, 0xbe, 0x84, 0xff, 0x07, 0xbe, 0x38, 0xa2, 0x03, 0x3c, 0x44, 0xb2, 0xc8, 0xbd, 0x3a, 0x86, 0x1a, 0xbc, 0xf0, 0x52, 0x8f, 0x3e, 0xdc, 0xeb, 0x8f, 0xbe, 0x67, 0xa6, 0x9d, 0x3d, 0x8b, 0xc3, 0x03, 0x3e, 0x5a, 0xc6, 0x4b, 0x3e, 0x85, 0x51, 0x6a, 0xbd, 0x76, 0xc6, 0x4b, 0xbb, 0xbd, 0x56, 0xbc, 0xbe, 0x44, 0x06, 0x1c, 0xbe, 0xcc, 0xa7, 0x99, 0xbd, 0x36, 0x22, 0x7e, 0xbe, 0x7d, 0x26, 0x5c, 0xbe, 0xff, 0x27, 0x6d, 0xbd, 0xe0, 0x58, 0xf1, 0x3d, 0x7c, 0xc8, 0x46, 0xbd, 0xd7, 0x58, 0x8e, 0x3d, 0x42, 0xb1, 0x88, 0x3d, 0x0e, 0x27, 0xef, 0x3d, 0xf6, 0xc9, 0x3f, 0x3d, 0x90, 0x32, 0xe0, 0xbd, 0xdb, 0x6d, 0x93, 0x3d, 0x2e, 0x9b, 0x06, 0x3e, 0xa0, 0x26, 0x39, 0xbe, 0xb9, 0xc6, 0x43, 0x3e, 0xe6, 0x6c, 0x52, 0xbe, 0xb4, 0x85, 0x4a, 0xbc, 0x8a, 0xdf, 0xde, 0xbd, 0x6c, 0xaa, 0xfb, 0xb9, 0x72, 0xfe, 0x2b, 0xbd, 0x1f, 0xaa, 0x17, 0xbe, 0xc6, 0xab, 0x2e, 0x3d, 0x65, 0x4b, 0xa9, 0x3d, 0xe1, 0x95, 0xbb, 0x3d, 0x24, 0x22, 0x4a, 0x3e, 0xe1, 0xbd, 0x53, 0x3e, 0x31, 0xdb, 0xb0, 0xbd, 0x0e, 0xa2, 0x8e, 0x3e, 0xe8, 0x24, 0x82, 0xbe, 0x26, 0x69, 0x3d, 0xbe, 0x0f, 0x88, 0x84, 0x3e, 0xa8, 0xce, 0xa6, 0xbc, 0xe3, 0xad, 0x60, 0xbe, 0x1a, 0x30, 0x20, 0xbd, 0xe3, 0x3c, 0xd6, 0x3d, 0xf3, 0x1a, 0x5b, 0xbc, 0xc1, 0x8b, 0x17, 0x3e, 0x78, 0xe5, 0xd4, 0x3d, 0xc8, 0x9e, 0x35, 0x3e, 0x02, 0xf5, 0x5f, 0xbe, 0x58, 0xcc, 0x92, 0xbe, 0xfc, 0x2e, 0x1c, 0xbe, 0x6a, 0xd1, 0x61, 0xbe, 0x24, 0xfb, 0xfb, 0x3a, 0x4a, 0x34, 0x84, 0xbd, 0xcc, 0x15, 0xcc, 0xbb, 0x41, 0x00, 0x2a, 0xbe, 0xf9, 0xef, 0xe9, 0x3c, 0x8d, 0x9b, 0x13, 0x3d, 0x28, 0x25, 0x38, 0xbe, 0x8d, 0xa1, 0xd2, 0x3e, 0x89, 0x36, 0x7f, 0x3e, 0x6c, 0x06, 0xb4, 0xbd, 0x58, 0xa2, 0xfd, 0xbc, 0x78, 0x33, 0x73, 0x3d, 0x97, 0x06, 0xbf, 0xbd, 0x49, 0xf1, 0x3a, 0x3e, 0x66, 0xe5, 0x81, 0x3d, 0xa6, 0x8b, 0x4d, 0xbd, 0x25, 0x5a, 0x55, 0xbe, 0x00, 0xb7, 0xc1, 0xbd, 0xa0, 0xe8, 0x86, 0xbc, 0xa1, 0x70, 0x1b, 0x3e, 0x37, 0xab, 0x6e, 0xbe, 0x85, 0x58, 0x22, 0x3e, 0x13, 0x18, 0x87, 0x3e, 0x7c, 0x41, 0x33, 0xbe, 0x69, 0x99, 0x34, 0x3e, 0x9e, 0xff, 0x2c, 0xbe, 0x56, 0x09, 0x7e, 0xbe, 0x08, 0x91, 0x03, 0x3f, 0xee, 0xe2, 0x96, 0x3d, 0x8d, 0x39, 0x47, 0xbe, 0xda, 0x2b, 0xd9, 0xbd, 0xa6, 0xb7, 0x80, 0x3e, 0xdc, 0xce, 0x69, 0xbe, 0xca, 0x62, 0x80, 0xbe, 0x22, 0x5b, 0xa7, 0x3a, 0x8d, 0xa2, 0x79, 0xbd, 0x1b, 0xc3, 0x2e, 0x3d, 0xb1, 0xad, 0xd8, 0xbd, 0xf4, 0x26, 0x3d, 0x3c, 0x2e, 0x3b, 0x49, 0xbd, 0x0e, 0x9d, 0xbb, 0x3d, 0x01, 0xde, 0x23, 0x3d, 0x68, 0xc7, 0xb3, 0x3c, 0xbc, 0x85, 0xb0, 0x3d, 0x7f, 0xb1, 0x03, 0xbd, 0x6e, 0xd0, 0x33, 0x3d, 0x3f, 0x76, 0xdb, 0x39, 0xff, 0xd6, 0xad, 0x3e, 0x16, 0x2c, 0xa4, 0x3d, 0x46, 0x0e, 0x2c, 0xbe, 0x78, 0xe9, 0x15, 0xbe, 0x2e, 0x25, 0x8d, 0x3d, 0x6d, 0x48, 0x32, 0x3c, 0x77, 0x4c, 0xe2, 0xbc, 0xa3, 0x73, 0x3c, 0xbc, 0xaa, 0x97, 0xe7, 0x3c, 0x46, 0x20, 0x16, 0xbd, 0xe7, 0x60, 0xfe, 0xbd, 0xb7, 0x3e, 0x59, 0xbe, 0x91, 0xd5, 0xca, 0x3d, 0xa2, 0xf9, 0xff, 0xff, 0x04, 0x00, 0x00, 0x00, 0x40, 0x06, 0x00, 0x00, 0x66, 0x57, 0x31, 0xbd, 0xec, 0x7e, 0x94, 0x3d, 0x74, 0x87, 0x99, 0xbc, 0x1b, 0xad, 0x57, 0xba, 0x3d, 0xf2, 0x91, 0xbd, 0xe1, 0xf9, 0xa5, 0xbd, 0x65, 0xee, 0x84, 0xbe, 0xa9, 0xa5, 0x0f, 0x3f, 0x2a, 0xbd, 0xa0, 0xbd, 0x5f, 0x85, 0xfd, 0xbc, 0x17, 0x90, 0xfc, 0x3d, 0x78, 0xdf, 0xe8, 0x3c, 0x59, 0x71, 0x15, 0xbd, 0xb4, 0x24, 0xa0, 0x3d, 0x71, 0x34, 0xef, 0xbd, 0xf5, 0x94, 0xb3, 0x3d, 0x58, 0xa6, 0x99, 0x3d, 0x03, 0xd4, 0x73, 0xbd, 0x6a, 0x91, 0xa1, 0x3c, 0x1c, 0x17, 0x74, 0x3d, 0x86, 0x89, 0xdc, 0x3c, 0x72, 0xd4, 0x62, 0xbe, 0xc9, 0x2c, 0x18, 0xbe, 0xec, 0x35, 0x4f, 0x3d, 0x8b, 0xd5, 0x56, 0xbe, 0xf8, 0x50, 0x98, 0x3d, 0x00, 0xf6, 0xe3, 0xbc, 0x2e, 0x2f, 0x01, 0x3f, 0xf1, 0x8d, 0xd8, 0x3d, 0x35, 0xde, 0x2d, 0xbe, 0x06, 0xe6, 0xad, 0x3d, 0x5e, 0x69, 0x4d, 0x3d, 0x55, 0xeb, 0x26, 0xbe, 0xcf, 0x2a, 0x23, 0xbe, 0x38, 0x5c, 0x37, 0xbe, 0x6a, 0xf6, 0x1a, 0x3d, 0x9b, 0x17, 0xe8, 0x3c, 0xaa, 0x75, 0x65, 0x3e, 0x8c, 0x29, 0xa7, 0x3c, 0x54, 0xb7, 0x7b, 0x3d, 0xfc, 0x04, 0x5a, 0x3d, 0x79, 0x7b, 0x05, 0xbd, 0x60, 0x3b, 0x0a, 0x3d, 0xc2, 0x51, 0xc5, 0xbd, 0xcb, 0x4d, 0x93, 0xbd, 0x9f, 0xda, 0x27, 0x3e, 0xce, 0x23, 0xba, 0x3d, 0xc9, 0xd5, 0x7b, 0x3e, 0x22, 0x5d, 0x9a, 0x3d, 0x85, 0xf3, 0x92, 0xbd, 0x77, 0x24, 0x06, 0xbd, 0xae, 0xb1, 0x7e, 0xb9, 0xb7, 0x16, 0x06, 0xbe, 0x96, 0x29, 0x40, 0xbd, 0x95, 0x04, 0xf9, 0xbd, 0x4f, 0x01, 0x64, 0x3d, 0xf2, 0xd4, 0x29, 0xbe, 0x89, 0xe7, 0xcf, 0xbd, 0x4a, 0x91, 0x51, 0xbe, 0x2c, 0xe5, 0x45, 0x3d, 0xbf, 0x0f, 0xce, 0x3d, 0x12, 0x70, 0xdb, 0xbd, 0xec, 0x75, 0x95, 0xbe, 0x03, 0xad, 0xa9, 0x3d, 0x54, 0x0e, 0xb1, 0xbd, 0x03, 0x22, 0x5d, 0xbd, 0x07, 0x27, 0x0a, 0x3e, 0x07, 0x44, 0xb3, 0x3e, 0xd1, 0xdc, 0xe2, 0x3d, 0x2f, 0x73, 0xef, 0x3d, 0x90, 0x8b, 0x1a, 0x3e, 0x2d, 0x47, 0x8b, 0xbc, 0x8d, 0x31, 0x26, 0xba, 0xa8, 0xe3, 0xd9, 0x3d, 0xcc, 0x04, 0x20, 0x3e, 0x81, 0xc5, 0xc2, 0xbc, 0x73, 0x1a, 0xf3, 0x3b, 0xcd, 0xa1, 0xcd, 0x3c, 0xf4, 0x6d, 0x82, 0x3e, 0xfe, 0xd9, 0x3a, 0xbe, 0x20, 0x27, 0xc2, 0x3d, 0xc9, 0x09, 0x3a, 0xbb, 0xef, 0x60, 0xcb, 0x3d, 0xf7, 0x0d, 0xb2, 0xbc, 0x4e, 0xad, 0x8b, 0x3d, 0x53, 0xa4, 0x01, 0x3e, 0x9d, 0x09, 0x72, 0xbd, 0xb6, 0x0e, 0xc6, 0x3e, 0x5d, 0x56, 0x1e, 0xbe, 0xdd, 0xb3, 0x15, 0xbe, 0xb4, 0x36, 0x0b, 0x3e, 0xbe, 0x68, 0x05, 0x3e, 0x7b, 0xc6, 0x71, 0xbd, 0xd7, 0xad, 0x32, 0x3d, 0x2e, 0xd3, 0xda, 0xbd, 0x0d, 0x12, 0xc1, 0xbd, 0xa6, 0x13, 0xc8, 0x3c, 0x22, 0xb7, 0x7c, 0xbe, 0x1c, 0xba, 0xd5, 0x3c, 0x3d, 0xf7, 0x7d, 0x3e, 0x2e, 0xa4, 0xf1, 0x3c, 0x11, 0x33, 0x80, 0x3c, 0x87, 0x9f, 0x3c, 0x3e, 0x70, 0x99, 0x48, 0x3c, 0xf5, 0x77, 0xde, 0xbd, 0x03, 0xff, 0xa7, 0xbd, 0x8f, 0x8d, 0xc2, 0x3c, 0x57, 0x80, 0xcd, 0x3e, 0xe3, 0x38, 0xa9, 0x3e, 0x3c, 0x63, 0x39, 0x3e, 0x61, 0xc6, 0xd5, 0x3d, 0x22, 0x29, 0x34, 0xbe, 0x7d, 0xc6, 0xa9, 0x3d, 0xe4, 0x04, 0x91, 0xbc, 0x32, 0x34, 0xbf, 0xbd, 0x62, 0x7c, 0xef, 0xbc, 0x73, 0x93, 0x1c, 0xbc, 0x4e, 0xfa, 0x09, 0xbd, 0xf4, 0x1c, 0x41, 0xbe, 0xde, 0x66, 0x7d, 0x3c, 0xe9, 0x2a, 0xe8, 0x3e, 0xba, 0xc9, 0xc7, 0xbe, 0x99, 0x74, 0x79, 0xbe, 0x18, 0x84, 0x02, 0x3f, 0xee, 0xd3, 0xe2, 0xbe, 0x1a, 0x52, 0x95, 0x3e, 0xb0, 0x41, 0x43, 0xbe, 0x75, 0x09, 0x45, 0xbd, 0x0a, 0x99, 0xa2, 0x3d, 0xd2, 0xe3, 0x7d, 0x3e, 0x57, 0x4a, 0xc7, 0xbd, 0xd6, 0xde, 0x9d, 0xbe, 0xe7, 0x09, 0x1f, 0x3e, 0x92, 0xbc, 0xa7, 0x3e, 0x12, 0x5c, 0x54, 0xbe, 0x13, 0xdf, 0x20, 0x3e, 0x50, 0xa1, 0xff, 0x3e, 0x3e, 0x46, 0x93, 0x3e, 0xc5, 0xc9, 0x00, 0x3f, 0x54, 0xd9, 0xa9, 0x3e, 0xef, 0x6f, 0x2e, 0x3f, 0x63, 0x57, 0x50, 0xbf, 0xd5, 0xfe, 0x65, 0xbf, 0xcf, 0xb2, 0x37, 0x3f, 0x7a, 0xac, 0x30, 0xbf, 0x5c, 0xfa, 0x0f, 0x3f, 0x83, 0x13, 0x0b, 0x3e, 0x8d, 0x32, 0x4d, 0x3e, 0x5f, 0xbe, 0xd6, 0x3e, 0x30, 0xdb, 0x49, 0x3f, 0xe9, 0x42, 0x31, 0x3f, 0x2d, 0x83, 0x1b, 0xbf, 0xd6, 0x4c, 0xcf, 0x3e, 0x5b, 0x61, 0x26, 0x3f, 0xa7, 0x41, 0x4d, 0xbf, 0x2a, 0x5b, 0xcc, 0x3e, 0xaf, 0x95, 0x64, 0x3f, 0x00, 0x33, 0x14, 0x3f, 0x3f, 0xce, 0x6d, 0x3f, 0x9f, 0x0b, 0x88, 0x3f, 0x50, 0xcc, 0x01, 0x3e, 0x85, 0x02, 0x81, 0xbd, 0xc5, 0x2a, 0x90, 0xbd, 0xfe, 0x41, 0x10, 0xbd, 0x56, 0xa7, 0x09, 0xbd, 0x98, 0x73, 0x2a, 0x3e, 0xf7, 0x94, 0x49, 0x3c, 0xb4, 0x69, 0x35, 0xbe, 0xe0, 0x74, 0x92, 0x3d, 0xdd, 0x10, 0xa7, 0xbb, 0x7d, 0x45, 0x1c, 0xbe, 0x41, 0x11, 0x9d, 0xbd, 0x9e, 0xe4, 0x6b, 0xbd, 0x5f, 0x6f, 0x4c, 0x3d, 0x74, 0xe0, 0x2d, 0xbe, 0x87, 0x45, 0x2b, 0x3c, 0x9e, 0x3b, 0xbb, 0xbd, 0x91, 0xf2, 0x61, 0x3d, 0x0a, 0x0a, 0x24, 0x3e, 0xed, 0xa1, 0x39, 0x3e, 0xa6, 0x4d, 0x8a, 0x3c, 0x77, 0xd6, 0x09, 0xbe, 0x58, 0x23, 0x9b, 0xbd, 0x59, 0x91, 0xc5, 0xbd, 0x15, 0x08, 0x3b, 0x3e, 0x89, 0xbc, 0xd8, 0x3d, 0x1b, 0x56, 0xaa, 0xbd, 0xec, 0xfa, 0x41, 0x3e, 0x1f, 0x66, 0x9f, 0xbc, 0x59, 0xea, 0x23, 0x3e, 0x73, 0xbd, 0x04, 0x3b, 0x8a, 0xdf, 0x89, 0xbe, 0x95, 0x08, 0x21, 0xbd, 0x9d, 0xf6, 0x2b, 0x3d, 0x22, 0x0c, 0x02, 0xbe, 0xb2, 0x5f, 0xc9, 0x3c, 0x10, 0x07, 0x22, 0x3e, 0xfe, 0x5a, 0xa9, 0x3e, 0x27, 0xad, 0xa4, 0x3d, 0xda, 0x6c, 0x29, 0x3e, 0x16, 0xdd, 0x1d, 0x3c, 0xff, 0x40, 0x02, 0xbd, 0x53, 0x4c, 0x10, 0xbd, 0xbd, 0xa4, 0x74, 0x3b, 0xbc, 0x4f, 0x7b, 0x3c, 0xb1, 0xad, 0x35, 0xbe, 0xe2, 0x3d, 0x15, 0x3c, 0x67, 0xb0, 0xc2, 0x3c, 0x87, 0x41, 0x75, 0x3d, 0x64, 0xb2, 0x4c, 0xbe, 0xac, 0xb9, 0x52, 0x3d, 0xfa, 0xb5, 0x04, 0xbe, 0x68, 0x20, 0x5b, 0xbe, 0x6f, 0x5c, 0xb1, 0xbd, 0xe1, 0x5d, 0x17, 0x3e, 0x2a, 0x3a, 0xa5, 0x3d, 0x68, 0x6f, 0x4d, 0x3e, 0x74, 0x1d, 0xdf, 0x3d, 0x2a, 0x81, 0xb1, 0xbd, 0xcb, 0xf6, 0xee, 0x3d, 0x73, 0x47, 0x08, 0x3d, 0x73, 0xbf, 0x12, 0xbe, 0xec, 0xcf, 0xfe, 0x3d, 0x95, 0x01, 0xe3, 0xbd, 0x21, 0xee, 0xac, 0x3c, 0x95, 0x95, 0x0f, 0xbc, 0xc8, 0xfd, 0x66, 0xbe, 0x18, 0x4a, 0x57, 0x3e, 0xb7, 0x66, 0x9f, 0xbc, 0xb1, 0x1a, 0xff, 0x3d, 0x06, 0xfe, 0x41, 0x3d, 0x97, 0xdf, 0xb4, 0xbd, 0x25, 0x1c, 0xe7, 0x3c, 0x08, 0x7b, 0xd4, 0xbd, 0xeb, 0x98, 0x07, 0xbe, 0xeb, 0xb2, 0xd9, 0x3d, 0x36, 0xf2, 0x5a, 0x3e, 0x9a, 0xa3, 0xe1, 0x3c, 0x20, 0x5b, 0x5e, 0x3c, 0x59, 0x3d, 0x6c, 0xbc, 0x22, 0x79, 0xd0, 0xbc, 0xd3, 0xf1, 0x07, 0xbc, 0x0c, 0xdb, 0x2d, 0x3e, 0x6c, 0xce, 0xbd, 0x3d, 0x4a, 0x56, 0x58, 0xbd, 0x52, 0xec, 0x00, 0x3e, 0x8d, 0x24, 0xe6, 0xbd, 0x07, 0x7b, 0xa5, 0xbd, 0xec, 0x03, 0x9f, 0xbd, 0x8e, 0xc8, 0x21, 0xbe, 0x36, 0xc7, 0x1e, 0xbe, 0x1a, 0x17, 0xcc, 0x3d, 0x2e, 0xea, 0x4f, 0x3d, 0xa2, 0xdc, 0x71, 0x3d, 0xe3, 0x67, 0x08, 0x3e, 0x2d, 0x04, 0xf6, 0x3d, 0xf2, 0x7a, 0x0d, 0x3e, 0x72, 0x76, 0x6a, 0x3d, 0xfe, 0x9f, 0x31, 0xbe, 0x2f, 0xb2, 0x49, 0x3d, 0x88, 0x81, 0x7c, 0xbd, 0xb0, 0x72, 0xc4, 0x3d, 0x34, 0x79, 0x86, 0xbd, 0x2a, 0x30, 0x9d, 0xbd, 0xbe, 0xef, 0xbf, 0x3d, 0xfd, 0x8d, 0xf4, 0x3c, 0xcf, 0x86, 0x35, 0xbe, 0x1e, 0x4b, 0xa0, 0x3e, 0x45, 0x4a, 0x37, 0xbd, 0xc9, 0x9b, 0xa9, 0x3d, 0xc9, 0xb8, 0x0e, 0xbe, 0x38, 0xd7, 0x76, 0xbe, 0x99, 0x4d, 0x23, 0x3e, 0xb7, 0x04, 0x73, 0xbd, 0x2a, 0xb5, 0x31, 0xbd, 0x53, 0xfa, 0x87, 0x3d, 0x94, 0x70, 0xde, 0xbd, 0x5c, 0xaa, 0x6b, 0x3d, 0x64, 0xba, 0xc4, 0x3d, 0xb4, 0x17, 0x81, 0x3d, 0xd2, 0x7b, 0x53, 0xbd, 0x00, 0xed, 0x30, 0xbe, 0x12, 0x31, 0x44, 0xbd, 0x05, 0xc7, 0x3f, 0x3e, 0x0a, 0x68, 0x7d, 0x3c, 0x30, 0x9c, 0xca, 0x3d, 0x55, 0x20, 0x09, 0x3d, 0xf2, 0xbe, 0x07, 0xbd, 0xb8, 0x65, 0xac, 0x3d, 0x1f, 0x08, 0xa2, 0xbd, 0x5f, 0xbb, 0x27, 0x3e, 0xbc, 0xae, 0x3a, 0xbe, 0xc5, 0x40, 0xd2, 0x3c, 0x47, 0xc8, 0xd6, 0x3c, 0x29, 0x3b, 0x30, 0xbe, 0x96, 0x7e, 0x3d, 0xbc, 0xd8, 0xf7, 0x3b, 0xbd, 0xe8, 0xf6, 0x85, 0x3d, 0x15, 0xf7, 0x16, 0xbe, 0xa7, 0x99, 0xbf, 0x3d, 0xf9, 0x39, 0x88, 0xbe, 0x76, 0xcd, 0x5f, 0x3e, 0xfe, 0x1a, 0x3c, 0x3e, 0x88, 0x16, 0x14, 0xbe, 0x9e, 0xb0, 0x1a, 0x3e, 0x70, 0xe2, 0x25, 0xbe, 0xe4, 0x6f, 0x7d, 0xbc, 0x67, 0x66, 0x12, 0x3d, 0xd3, 0xe4, 0x5e, 0xbe, 0xcb, 0xa8, 0x8a, 0xbe, 0xb6, 0x24, 0xa1, 0xbd, 0xa0, 0xd9, 0x36, 0x3e, 0x4c, 0x85, 0xa0, 0xbc, 0xb6, 0x12, 0x36, 0xbe, 0xb8, 0x6c, 0x0f, 0x3e, 0x43, 0x8e, 0x92, 0xbe, 0x3a, 0xd4, 0x93, 0xbe, 0xd1, 0x98, 0x2a, 0xbd, 0xe2, 0xd3, 0x09, 0xbf, 0xae, 0x7a, 0x74, 0x3d, 0xb8, 0x3d, 0x26, 0xbd, 0xb0, 0xe1, 0x32, 0xbc, 0x19, 0xaa, 0x3c, 0x3d, 0x9c, 0x7c, 0xe0, 0xbd, 0x0c, 0x14, 0xfd, 0x3d, 0x15, 0x48, 0x5f, 0xbd, 0xaa, 0xd6, 0x0d, 0x3e, 0xd4, 0xe4, 0x9f, 0x3e, 0x96, 0xff, 0x07, 0x3e, 0xd4, 0x74, 0xa7, 0xbd, 0xea, 0xc1, 0x36, 0xbd, 0x55, 0x9e, 0xfd, 0x3d, 0x6b, 0x88, 0xc4, 0x3d, 0xa1, 0xe5, 0xfb, 0x3d, 0xd4, 0x93, 0x90, 0xbe, 0x65, 0x17, 0x48, 0xbd, 0x22, 0x1b, 0x1e, 0x3c, 0x52, 0x2f, 0x8f, 0x3d, 0x3a, 0x38, 0x28, 0x3e, 0xd8, 0x79, 0x6b, 0x3b, 0xaf, 0xa3, 0xaf, 0x3d, 0x0f, 0x73, 0x32, 0xbe, 0x61, 0x01, 0x36, 0xbe, 0xc8, 0xc1, 0xb9, 0x39, 0x6a, 0x7b, 0x86, 0xbc, 0xec, 0x6e, 0x65, 0xbd, 0x18, 0xef, 0x1b, 0x3d, 0xf8, 0xa2, 0x0d, 0x3e, 0x37, 0xa3, 0xd3, 0x3b, 0x91, 0x3c, 0x38, 0x3e, 0x20, 0x81, 0x4d, 0x3d, 0x9f, 0x19, 0x9b, 0xbd, 0x10, 0x29, 0x0f, 0xbe, 0xce, 0xd3, 0x2e, 0xbe, 0x45, 0xdc, 0x26, 0xbe, 0x36, 0xc5, 0x3a, 0x3e, 0x3c, 0x6a, 0x06, 0x3e, 0xfe, 0xff, 0x24, 0x3e, 0x27, 0x9e, 0x13, 0x3e, 0x45, 0x7e, 0x0c, 0x3e, 0xee, 0x1c, 0xc5, 0xbd, 0xae, 0x66, 0x7a, 0x3d, 0x8a, 0x75, 0x81, 0xbd, 0xd6, 0x21, 0x06, 0x3e, 0xd6, 0x90, 0x65, 0xbe, 0x15, 0x0f, 0x25, 0x3e, 0x22, 0x5f, 0x6f, 0x3d, 0xa6, 0xdd, 0x86, 0x3e, 0x62, 0x5f, 0x8d, 0x3d, 0x39, 0x86, 0xab, 0x3d, 0x5b, 0x8a, 0xfc, 0x3d, 0xef, 0xa0, 0x8d, 0xbc, 0xdc, 0x50, 0x54, 0x3e, 0xca, 0x09, 0x33, 0xbd, 0x06, 0xea, 0x86, 0xbe, 0xdd, 0x18, 0xd9, 0x3e, 0x14, 0x42, 0x10, 0xbe, 0xbc, 0xad, 0x32, 0x3d, 0x22, 0x73, 0x66, 0x3e, 0xc8, 0x28, 0xc6, 0x3d, 0xc5, 0x8a, 0x34, 0x3d, 0x22, 0xde, 0x72, 0xbd, 0x48, 0x79, 0x42, 0x3e, 0x8a, 0xdb, 0x2d, 0x3e, 0xb1, 0xfd, 0x29, 0x3e, 0xfb, 0x29, 0x0f, 0x3e, 0x3d, 0xd5, 0xa6, 0xbb, 0x61, 0x78, 0x53, 0x3e, 0xd4, 0xad, 0xff, 0x3d, 0xcf, 0xd4, 0x22, 0xbd, 0x17, 0xc3, 0x96, 0x3d, 0x8d, 0xc7, 0x27, 0xbd, 0xe5, 0x70, 0xa2, 0x3d, 0x57, 0x30, 0xaa, 0xbc, 0xc9, 0xaf, 0xbe, 0xbe, 0xad, 0x53, 0xaa, 0x3c, 0xff, 0xf8, 0x03, 0x3e, 0x35, 0x9c, 0x44, 0xbe, 0x70, 0x44, 0x0f, 0x3d, 0xb1, 0xf6, 0xa9, 0xbc, 0xee, 0xff, 0xff, 0xff, 0x04, 0x00, 0x00, 0x00, 0x04, 0x00, 0x00, 0x00, 0xa2, 0xa8, 0x43, 0x3c, 0x00, 0x00, 0x06, 0x00, 0x08, 0x00, 0x04, 0x00, 0x06, 0x00, 0x00, 0x00, 0x04, 0x00, 0x00, 0x00, 0x40, 0x01, 0x00, 0x00, 0x00, 0x00, 0x00, 0x00, 0x00, 0x00, 0x00, 0x00, 0x00, 0x00, 0x00, 0x00, 0x00, 0x00, 0x00, 0x00, 0x00, 0x00, 0x00, 0x00, 0x00, 0x00, 0x00, 0x00, 0x00, 0x00, 0x00, 0x00, 0x00, 0x00, 0x00, 0x00, 0x00, 0x00, 0x00, 0x00, 0x00, 0x00, 0x00, 0x00, 0x00, 0x00, 0x00, 0x00, 0x00, 0x00, 0x00, 0x00, 0x00, 0x00, 0x00, 0x00, 0x00, 0x00, 0x00, 0x00, 0x00, 0x00, 0x00, 0x00, 0x00, 0x00, 0x00, 0x00, 0x00, 0x00, 0x00, 0x00, 0x00, 0x00, 0x00, 0x00, 0x00, 0x00, 0x00, 0x00, 0x00, 0x00, 0x00, 0x00, 0x00, 0x00, 0x00, 0x00, 0x00, 0x00, 0x00, 0x00, 0x00, 0x00, 0x00, 0x00, 0x00, 0x00, 0x00, 0x00, 0x00, 0x00, 0x00, 0x00, 0x00, 0x00, 0x00, 0x00, 0x00, 0x00, 0x00, 0x00, 0x00, 0x00, 0x00, 0x00, 0x00, 0x00, 0x00, 0x00, 0x00, 0x00, 0x00, 0x00, 0x00, 0x00, 0x00, 0x00, 0x00, 0x00, 0x00, 0x00, 0x00, 0x00, 0x00, 0x00, 0x00, 0x00, 0x00, 0x00, 0x00, 0x00, 0x00, 0x00, 0x00, 0x00, 0x00, 0x00, 0x00, 0x00, 0x00, 0x00, 0x00, 0x00, 0x00, 0x00, 0x00, 0x00, 0x00, 0x00, 0x00, 0x00, 0x00, 0x00, 0x00, 0x00, 0x00, 0x00, 0x00, 0x00, 0x00, 0x00, 0x00, 0x00, 0x00, 0x00, 0x00, 0x00, 0x00, 0x00, 0x00, 0x00, 0x00, 0x00, 0x00, 0x00, 0x00, 0x00, 0x00, 0x00, 0x00, 0x00, 0x00, 0x00, 0x00, 0x00, 0x00, 0x00, 0x00, 0x00, 0x00, 0x00, 0x00, 0x00, 0x00, 0x00, 0x00, 0x00, 0x00, 0x00, 0x00, 0x00, 0x00, 0x00, 0x00, 0x00, 0x00, 0x00, 0x00, 0x00, 0x00, 0x00, 0x00, 0x00, 0x00, 0x00, 0x00, 0x00, 0x00, 0x00, 0x00, 0x00, 0x00, 0x00, 0x00, 0x00, 0x00, 0x00, 0x00, 0x00, 0x00, 0x00, 0x00, 0x00, 0x00, 0x00, 0x00, 0x00, 0x00, 0x00, 0x00, 0x00, 0x00, 0x00, 0x00, 0x00, 0x00, 0x00, 0x00, 0x00, 0x00, 0x00, 0x00, 0x00, 0x00, 0x00, 0x00, 0x00, 0x00, 0x00, 0x00, 0x00, 0x00, 0x00, 0x00, 0x00, 0x00, 0x00, 0x00, 0x00, 0x00, 0x00, 0x00, 0x00, 0x00, 0x00, 0x00, 0x00, 0x00, 0x00, 0x00, 0x00, 0x00, 0x00, 0x00, 0x00, 0x00, 0x00, 0x00, 0x00, 0x00, 0x00, 0x00, 0x00, 0x00, 0x00, 0x00, 0x00, 0x00, 0x00, 0x00, 0x00, 0x00, 0x00, 0x00, 0x00, 0x00, 0x00, 0x00, 0x00, 0x00, 0x00, 0x00, 0x00, 0x04, 0xf8, 0xff, 0xff, 0x08, 0xf8, 0xff, 0xff, 0x0f, 0x00, 0x00, 0x00, 0x4d, 0x4c, 0x49, 0x52, 0x20, 0x43, 0x6f, 0x6e, 0x76, 0x65, 0x72, 0x74, 0x65, 0x64, 0x2e, 0x00, 0x01, 0x00, 0x00, 0x00, 0x14, 0x00, 0x00, 0x00, 0x00, 0x00, 0x0e, 0x00, 0x18, 0x00, 0x14, 0x00, 0x10, 0x00, 0x0c, 0x00, 0x08, 0x00, 0x04, 0x00, 0x0e, 0x00, 0x00, 0x00, 0x14, 0x00, 0x00, 0x00, 0x1c, 0x00, 0x00, 0x00, 0x74, 0x01, 0x00, 0x00, 0x78, 0x01, 0x00, 0x00, 0x7c, 0x01, 0x00, 0x00, 0x04, 0x00, 0x00, 0x00, 0x6d, 0x61, 0x69, 0x6e, 0x00, 0x00, 0x00, 0x00, 0x03, 0x00, 0x00, 0x00, 0xbc, 0x00, 0x00, 0x00, 0x4c, 0x00, 0x00, 0x00, 0x04, 0x00, 0x00, 0x00, 0xca, 0xff, 0xff, 0xff, 0x14, 0x00, 0x00, 0x00, 0x00, 0x00, 0x00, 0x08, 0x10, 0x00, 0x00, 0x00, 0x14, 0x00, 0x00, 0x00, 0x02, 0x00, 0x00, 0x00, 0x84, 0xf8, 0xff, 0xff, 0x01, 0x00, 0x00, 0x00, 0x16, 0x00, 0x00, 0x00, 0x03, 0x00, 0x00, 0x00, 0x15, 0x00, 0x00, 0x00, 0x0f, 0x00, 0x00, 0x00, 0x02, 0x00, 0x00, 0x00, 0x00, 0x00, 0x0e, 0x00, 0x1a, 0x00, 0x14, 0x00, 0x10, 0x00, 0x0c, 0x00, 0x0b, 0x00, 0x04, 0x00, 0x0e, 0x00, 0x00, 0x00, 0x24, 0x00, 0x00, 0x00, 0x00, 0x00, 0x00, 0x20, 0x2c, 0x00, 0x00, 0x00, 0x30, 0x00, 0x00, 0x00, 0x01, 0x00, 0x00, 0x00, 0x00, 0x00, 0x0e, 0x00, 0x10, 0x00, 0x0c, 0x00, 0x08, 0x00, 0x00, 0x00, 0x00, 0x00, 0x04, 0x00, 0x0e, 0x00, 0x00, 0x00, 0x02, 0x00, 0x00, 0x00, 0x05, 0x00, 0x00, 0x00, 0x05, 0x00, 0x00, 0x00, 0x01, 0x00, 0x00, 0x00, 0x15, 0x00, 0x00, 0x00, 0x04, 0x00, 0x00, 0x00, 0x14, 0x00, 0x00, 0x00, 0x10, 0x00, 0x00, 0x00, 0x11, 0x00, 0x00, 0x00, 0x12, 0x00, 0x00, 0x00, 0x00, 0x00, 0x16, 0x00, 0x18, 0x00, 0x00, 0x00, 0x14, 0x00, 0x10, 0x00, 0x0f, 0x00, 0x08, 0x00, 0x00, 0x00, 0x00, 0x00, 0x00, 0x00, 0x04, 0x00, 0x16, 0x00, 0x00, 0x00, 0x14, 0x00, 0x00, 0x00, 0x1c, 0x00, 0x00, 0x00, 0x00, 0x00, 0x00, 0x47, 0x20, 0x00, 0x00, 0x00, 0x24, 0x00, 0x00, 0x00, 0x00, 0x00, 0x00, 0x00, 0x08, 0x00, 0x0c, 0x00, 0x0b, 0x00, 0x04, 0x00, 0x08, 0x00, 0x00, 0x00, 0x00, 0x00, 0x20, 0x41, 0x00, 0x00, 0x00, 0x04, 0x01, 0x00, 0x00, 0x00, 0x14, 0x00, 0x00, 0x00, 0x18, 0x00, 0x00, 0x00, 0x00, 0x00, 0x00, 0x00, 0x0b, 0x00, 0x00, 0x00, 0x0c, 0x00, 0x00, 0x00, 0x0d, 0x00, 0x00, 0x00, 0x0e, 0x00, 0x00, 0x00, 0x03, 0x00, 0x00, 0x00, 0x04, 0x00, 0x00, 0x00, 0x05, 0x00, 0x00, 0x00, 0x06, 0x00, 0x00, 0x00, 0xff, 0xff, 0xff, 0xff, 0xff, 0xff, 0xff, 0xff, 0xff, 0xff, 0xff, 0xff, 0x07, 0x00, 0x00, 0x00, 0x08, 0x00, 0x00, 0x00, 0x09, 0x00, 0x00, 0x00, 0x0a, 0x00, 0x00, 0x00, 0xff, 0xff, 0xff, 0xff, 0xff, 0xff, 0xff, 0xff, 0x01, 0x00, 0x00, 0x00, 0x13, 0x00, 0x00, 0x00, 0xff, 0xff, 0xff, 0xff, 0xff, 0xff, 0xff, 0xff, 0xff, 0xff, 0xff, 0xff, 0xff, 0xff, 0xff, 0xff, 0x01, 0x00, 0x00, 0x00, 0x16, 0x00, 0x00, 0x00, 0x01, 0x00, 0x00, 0x00, 0x00, 0x00, 0x00, 0x00, 0x17, 0x00, 0x00, 0x00, 0x1c, 0x06, 0x00, 0x00, 0xc0, 0x05, 0x00, 0x00, 0x54, 0x05, 0x00, 0x00, 0x14, 0x05, 0x00, 0x00, 0xd4, 0x04, 0x00, 0x00, 0x94, 0x04, 0x00, 0x00, 0x54, 0x04, 0x00, 0x00, 0x18, 0x04, 0x00, 0x00, 0xdc, 0x03, 0x00, 0x00, 0xa0, 0x03, 0x00, 0x00, 0x64, 0x03, 0x00, 0x00, 0x24, 0x03, 0x00, 0x00, 0xe4, 0x02, 0x00, 0x00, 0xa0, 0x02, 0x00, 0x00, 0x5c, 0x02, 0x00, 0x00, 0x14, 0x02, 0x00, 0x00, 0xd0, 0x01, 0x00, 0x00, 0x74, 0x01, 0x00, 0x00, 0x30, 0x01, 0x00, 0x00, 0xec, 0x00, 0x00, 0x00, 0x94, 0x00, 0x00, 0x00, 0x50, 0x00, 0x00, 0x00, 0x04, 0x00, 0x00, 0x00, 0x56, 0xfa, 0xff, 0xff, 0x00, 0x00, 0x00, 0x01, 0x10, 0x00, 0x00, 0x00, 0x10, 0x00, 0x00, 0x00, 0x17, 0x00, 0x00, 0x00, 0x28, 0x00, 0x00, 0x00, 0x40, 0xfa, 0xff, 0xff, 0x19, 0x00, 0x00, 0x00, 0x53, 0x74, 0x61, 0x74, 0x65, 0x66, 0x75, 0x6c, 0x50, 0x61, 0x72, 0x74, 0x69, 0x74, 0x69, 0x6f, 0x6e, 0x65, 0x64, 0x43, 0x61, 0x6c, 0x6c, 0x3a, 0x30, 0x00, 0x00, 0x00, 0x02, 0x00, 0x00, 0x00, 0x04, 0x00, 0x00, 0x00, 0x01, 0x00, 0x00, 0x00, 0x9e, 0xfa, 0xff, 0xff, 0x00, 0x00, 0x00, 0x01, 0x10, 0x00, 0x00, 0x00, 0x10, 0x00, 0x00, 0x00, 0x16, 0x00, 0x00, 0x00, 0x20, 0x00, 0x00, 0x00, 0x88, 0xfa, 0xff, 0xff, 0x11, 0x00, 0x00, 0x00, 0x74, 0x66, 0x6c, 0x2e, 0x73, 0x74, 0x72, 0x69, 0x64, 0x65, 0x64, 0x5f, 0x73, 0x6c, 0x69, 0x63, 0x65, 0x00, 0x00, 0x00, 0x02, 0x00, 0x00, 0x00, 0x04, 0x00, 0x00, 0x00, 0x14, 0x00, 0x00, 0x00, 0xde, 0xfa, 0xff, 0xff, 0x00, 0x00, 0x00, 0x01, 0x10, 0x00, 0x00, 0x00, 0x10, 0x00, 0x00, 0x00, 0x15, 0x00, 0x00, 0x00, 0x30, 0x00, 0x00, 0x00, 0xc8, 0xfa, 0xff, 0xff, 0x20, 0x00, 0x00, 0x00, 0x74, 0x66, 0x6c, 0x2e, 0x75, 0x6e, 0x69, 0x64, 0x69, 0x72, 0x65, 0x63, 0x74, 0x69, 0x6f, 0x6e, 0x61, 0x6c, 0x5f, 0x73, 0x65, 0x71, 0x75, 0x65, 0x6e, 0x63, 0x65, 0x5f, 0x6c, 0x73, 0x74, 0x6d, 0x00, 0x00, 0x00, 0x00, 0x03, 0x00, 0x00, 0x00, 0x04, 0x00, 0x00, 0x00, 0x05, 0x00, 0x00, 0x00, 0x14, 0x00, 0x00, 0x00, 0x8a, 0xfb, 0xff, 0xff, 0x00, 0x00, 0x01, 0x01, 0x0c, 0x00, 0x00, 0x00, 0x0c, 0x00, 0x00, 0x00, 0x24, 0x00, 0x00, 0x00, 0x18, 0xfb, 0xff, 0xff, 0x16, 0x00, 0x00, 0x00, 0x73, 0x65, 0x71, 0x75, 0x65, 0x6e, 0x74, 0x69, 0x61, 0x6c, 0x2f, 0x6c, 0x73, 0x74, 0x6d, 0x2f, 0x7a, 0x65, 0x72, 0x6f, 0x73, 0x31, 0x00, 0x00, 0x02, 0x00, 0x00, 0x00, 0x04, 0x00, 0x00, 0x00, 0x14, 0x00, 0x00, 0x00, 0x7e, 0xff, 0xff, 0xff, 0x00, 0x00, 0x00, 0x01, 0x14, 0x00, 0x00, 0x00, 0x14, 0x00, 0x00, 0x00, 0x13, 0x00, 0x00, 0x00, 0x00, 0x00, 0x00, 0x02, 0x20, 0x00, 0x00, 0x00, 0x60, 0xfb, 0xff, 0xff, 0x10, 0x00, 0x00, 0x00, 0x61, 0x72, 0x69, 0x74, 0x68, 0x2e, 0x63, 0x6f, 0x6e, 0x73, 0x74, 0x61, 0x6e, 0x74, 0x31, 0x34, 0x00, 0x00, 0x00, 0x00, 0x01, 0x00, 0x00, 0x00, 0x03, 0x00, 0x00, 0x00, 0xbe, 0xff, 0xff, 0xff, 0x00, 0x00, 0x00, 0x01, 0x14, 0x00, 0x00, 0x00, 0x14, 0x00, 0x00, 0x00, 0x12, 0x00, 0x00, 0x00, 0x00, 0x00, 0x00, 0x02, 0x20, 0x00, 0x00, 0x00, 0xa0, 0xfb, 0xff, 0xff, 0x10, 0x00, 0x00, 0x00, 0x61, 0x72, 0x69, 0x74, 0x68, 0x2e, 0x63, 0x6f, 0x6e, 0x73, 0x74, 0x61, 0x6e, 0x74, 0x31, 0x33, 0x00, 0x00, 0x00, 0x00, 0x01, 0x00, 0x00, 0x00, 0x03, 0x00, 0x00, 0x00, 0x00, 0x00, 0x16, 0x00, 0x1c, 0x00, 0x18, 0x00, 0x17, 0x00, 0x10, 0x00, 0x0c, 0x00, 0x08, 0x00, 0x00, 0x00, 0x00, 0x00, 0x00, 0x00, 0x07, 0x00, 0x16, 0x00, 0x00, 0x00, 0x00, 0x00, 0x00, 0x01, 0x14, 0x00, 0x00, 0x00, 0x14, 0x00, 0x00, 0x00, 0x11, 0x00, 0x00, 0x00, 0x00, 0x00, 0x00, 0x02, 0x20, 0x00, 0x00, 0x00, 0xf8, 0xfb, 0xff, 0xff, 0x10, 0x00, 0x00, 0x00, 0x61, 0x72, 0x69, 0x74, 0x68, 0x2e, 0x63, 0x6f, 0x6e, 0x73, 0x74, 0x61, 0x6e, 0x74, 0x31, 0x32, 0x00, 0x00, 0x00, 0x00, 0x01, 0x00, 0x00, 0x00, 0x03, 0x00, 0x00, 0x00, 0x4a, 0xfc, 0xff, 0xff, 0x00, 0x00, 0x00, 0x01, 0x10, 0x00, 0x00, 0x00, 0x10, 0x00, 0x00, 0x00, 0x10, 0x00, 0x00, 0x00, 0x24, 0x00, 0x00, 0x00, 0x34, 0xfc, 0xff, 0xff, 0x17, 0x00, 0x00, 0x00, 0x73, 0x65, 0x71, 0x75, 0x65, 0x6e, 0x74, 0x69, 0x61, 0x6c, 0x2f, 0x64, 0x65, 0x6e, 0x73, 0x65, 0x2f, 0x4d, 0x61, 0x74, 0x4d, 0x75, 0x6c, 0x00, 0x02, 0x00, 0x00, 0x00, 0x01, 0x00, 0x00, 0x00, 0x14, 0x00, 0x00, 0x00, 0x8e, 0xfc, 0xff, 0xff, 0x00, 0x00, 0x00, 0x01, 0x10, 0x00, 0x00, 0x00, 0x10, 0x00, 0x00, 0x00, 0x0f, 0x00, 0x00, 0x00, 0x20, 0x00, 0x00, 0x00, 0x78, 0xfc, 0xff, 0xff, 0x10, 0x00, 0x00, 0x00, 0x61, 0x72, 0x69, 0x74, 0x68, 0x2e, 0x63, 0x6f, 0x6e, 0x73, 0x74, 0x61, 0x6e, 0x74, 0x31, 0x31, 0x00, 0x00, 0x00, 0x00, 0x02, 0x00, 0x00, 0x00, 0x14, 0x00, 0x00, 0x00, 0x01, 0x00, 0x00, 0x00, 0xce, 0xfc, 0xff, 0xff, 0x00, 0x00, 0x00, 0x01, 0x10, 0x00, 0x00, 0x00, 0x10, 0x00, 0x00, 0x00, 0x0e, 0x00, 0x00, 0x00, 0x20, 0x00, 0x00, 0x00, 0xb8, 0xfc, 0xff, 0xff, 0x10, 0x00, 0x00, 0x00, 0x61, 0x72, 0x69, 0x74, 0x68, 0x2e, 0x63, 0x6f, 0x6e, 0x73, 0x74, 0x61, 0x6e, 0x74, 0x31, 0x30, 0x00, 0x00, 0x00, 0x00, 0x02, 0x00, 0x00, 0x00, 0x14, 0x00, 0x00, 0x00, 0x01, 0x00, 0x00, 0x00, 0x0e, 0xfd, 0xff, 0xff, 0x00, 0x00, 0x00, 0x01, 0x10, 0x00, 0x00, 0x00, 0x10, 0x00, 0x00, 0x00, 0x0d, 0x00, 0x00, 0x00, 0x1c, 0x00, 0x00, 0x00, 0xf8, 0xfc, 0xff, 0xff, 0x0f, 0x00, 0x00, 0x00, 0x61, 0x72, 0x69, 0x74, 0x68, 0x2e, 0x63, 0x6f, 0x6e, 0x73, 0x74, 0x61, 0x6e, 0x74, 0x39, 0x00, 0x02, 0x00, 0x00, 0x00, 0x14, 0x00, 0x00, 0x00, 0x01, 0x00, 0x00, 0x00, 0x4a, 0xfd, 0xff, 0xff, 0x00, 0x00, 0x00, 0x01, 0x10, 0x00, 0x00, 0x00, 0x10, 0x00, 0x00, 0x00, 0x0c, 0x00, 0x00, 0x00, 0x1c, 0x00, 0x00, 0x00, 0x34, 0xfd, 0xff, 0xff, 0x0f, 0x00, 0x00, 0x00, 0x61, 0x72, 0x69, 0x74, 0x68, 0x2e, 0x63, 0x6f, 0x6e, 0x73, 0x74, 0x61, 0x6e, 0x74, 0x38, 0x00, 0x02, 0x00, 0x00, 0x00, 0x14, 0x00, 0x00, 0x00, 0x01, 0x00, 0x00, 0x00, 0x86, 0xfd, 0xff, 0xff, 0x00, 0x00, 0x00, 0x01, 0x10, 0x00, 0x00, 0x00, 0x10, 0x00, 0x00, 0x00, 0x0b, 0x00, 0x00, 0x00, 0x1c, 0x00, 0x00, 0x00, 0x70, 0xfd, 0xff, 0xff, 0x0f, 0x00, 0x00, 0x00, 0x61, 0x72, 0x69, 0x74, 0x68, 0x2e, 0x63, 0x6f, 0x6e, 0x73, 0x74, 0x61, 0x6e, 0x74, 0x37, 0x00, 0x01, 0x00, 0x00, 0x00, 0x14, 0x00, 0x00, 0x00, 0xbe, 0xfd, 0xff, 0xff, 0x00, 0x00, 0x00, 0x01, 0x10, 0x00, 0x00, 0x00, 0x10, 0x00, 0x00, 0x00, 0x0a, 0x00, 0x00, 0x00, 0x1c, 0x00, 0x00, 0x00, 0xa8, 0xfd, 0xff, 0xff, 0x0f, 0x00, 0x00, 0x00, 0x61, 0x72, 0x69, 0x74, 0x68, 0x2e, 0x63, 0x6f, 0x6e, 0x73, 0x74, 0x61, 0x6e, 0x74, 0x36, 0x00, 0x01, 0x00, 0x00, 0x00, 0x14, 0x00, 0x00, 0x00, 0xf6, 0xfd, 0xff, 0xff, 0x00, 0x00, 0x00, 0x01, 0x10, 0x00, 0x00, 0x00, 0x10, 0x00, 0x00, 0x00, 0x09, 0x00, 0x00, 0x00, 0x1c, 0x00, 0x00, 0x00, 0xe0, 0xfd, 0xff, 0xff, 0x0f, 0x00, 0x00, 0x00, 0x61, 0x72, 0x69, 0x74, 0x68, 0x2e, 0x63, 0x6f, 0x6e, 0x73, 0x74, 0x61, 0x6e, 0x74, 0x35, 0x00, 0x01, 0x00, 0x00, 0x00, 0x14, 0x00, 0x00, 0x00, 0x2e, 0xfe, 0xff, 0xff, 0x00, 0x00, 0x00, 0x01, 0x10, 0x00, 0x00, 0x00, 0x10, 0x00, 0x00, 0x00, 0x08, 0x00, 0x00, 0x00, 0x1c, 0x00, 0x00, 0x00, 0x18, 0xfe, 0xff, 0xff, 0x0f, 0x00, 0x00, 0x00, 0x61, 0x72, 0x69, 0x74, 0x68, 0x2e, 0x63, 0x6f, 0x6e, 0x73, 0x74, 0x61, 0x6e, 0x74, 0x34, 0x00, 0x01, 0x00, 0x00, 0x00, 0x14, 0x00, 0x00, 0x00, 0x66, 0xfe, 0xff, 0xff, 0x00, 0x00, 0x00, 0x01, 0x10, 0x00, 0x00, 0x00, 0x10, 0x00, 0x00, 0x00, 0x07, 0x00, 0x00, 0x00, 0x1c, 0x00, 0x00, 0x00, 0x50, 0xfe, 0xff, 0xff, 0x0f, 0x00, 0x00, 0x00, 0x61, 0x72, 0x69, 0x74, 0x68, 0x2e, 0x63, 0x6f, 0x6e, 0x73, 0x74, 0x61, 0x6e, 0x74, 0x33, 0x00, 0x02, 0x00, 0x00, 0x00, 0x14, 0x00, 0x00, 0x00, 0x14, 0x00, 0x00, 0x00, 0xa2, 0xfe, 0xff, 0xff, 0x00, 0x00, 0x00, 0x01, 0x10, 0x00, 0x00, 0x00, 0x10, 0x00, 0x00, 0x00, 0x06, 0x00, 0x00, 0x00, 0x1c, 0x00, 0x00, 0x00, 0x8c, 0xfe, 0xff, 0xff, 0x0f, 0x00, 0x00, 0x00, 0x61, 0x72, 0x69, 0x74, 0x68, 0x2e, 0x63, 0x6f, 0x6e, 0x73, 0x74, 0x61, 0x6e, 0x74, 0x32, 0x00, 0x02, 0x00, 0x00, 0x00, 0x14, 0x00, 0x00, 0x00, 0x14, 0x00, 0x00, 0x00, 0xde, 0xfe, 0xff, 0xff, 0x00, 0x00, 0x00, 0x01, 0x10, 0x00, 0x00, 0x00, 0x10, 0x00, 0x00, 0x00, 0x05, 0x00, 0x00, 0x00, 0x1c, 0x00, 0x00, 0x00, 0xc8, 0xfe, 0xff, 0xff, 0x0f, 0x00, 0x00, 0x00, 0x61, 0x72, 0x69, 0x74, 0x68, 0x2e, 0x63, 0x6f, 0x6e, 0x73, 0x74, 0x61, 0x6e, 0x74, 0x31, 0x00, 0x02, 0x00, 0x00, 0x00, 0x14, 0x00, 0x00, 0x00, 0x14, 0x00, 0x00, 0x00, 0x1a, 0xff, 0xff, 0xff, 0x00, 0x00, 0x00, 0x01, 0x10, 0x00, 0x00, 0x00, 0x10, 0x00, 0x00, 0x00, 0x04, 0x00, 0x00, 0x00, 0x1c, 0x00, 0x00, 0x00, 0x04, 0xff, 0xff, 0xff, 0x0e, 0x00, 0x00, 0x00, 0x61, 0x72, 0x69, 0x74, 0x68, 0x2e, 0x63, 0x6f, 0x6e, 0x73, 0x74, 0x61, 0x6e, 0x74, 0x00, 0x00, 0x02, 0x00, 0x00, 0x00, 0x14, 0x00, 0x00, 0x00, 0x14, 0x00, 0x00, 0x00, 0x56, 0xff, 0xff, 0xff, 0x00, 0x00, 0x00, 0x01, 0x10, 0x00, 0x00, 0x00, 0x10, 0x00, 0x00, 0x00, 0x03, 0x00, 0x00, 0x00, 0x34, 0x00, 0x00, 0x00, 0x40, 0xff, 0xff, 0xff, 0x27, 0x00, 0x00, 0x00, 0x73, 0x65, 0x71, 0x75, 0x65, 0x6e, 0x74, 0x69, 0x61, 0x6c, 0x2f, 0x64, 0x65, 0x6e, 0x73, 0x65, 0x2f, 0x42, 0x69, 0x61, 0x73, 0x41, 0x64, 0x64, 0x2f, 0x52, 0x65, 0x61, 0x64, 0x56, 0x61, 0x72, 0x69, 0x61, 0x62, 0x6c, 0x65, 0x4f, 0x70, 0x00, 0x01, 0x00, 0x00, 0x00, 0x01, 0x00, 0x00, 0x00, 0x00, 0x00, 0x16, 0x00, 0x14, 0x00, 0x10, 0x00, 0x00, 0x00, 0x00, 0x00, 0x0c, 0x00, 0x08, 0x00, 0x07, 0x00, 0x00, 0x00, 0x00, 0x00, 0x06, 0x00, 0x16, 0x00, 0x00, 0x00, 0x00, 0x00, 0x01, 0x01, 0x0c, 0x00, 0x00, 0x00, 0x0c, 0x00, 0x00, 0x00, 0x24, 0x00, 0x00, 0x00, 0xa4, 0xff, 0xff, 0xff, 0x15, 0x00, 0x00, 0x00, 0x73, 0x65, 0x71, 0x75, 0x65, 0x6e, 0x74, 0x69, 0x61, 0x6c, 0x2f, 0x6c, 0x73, 0x74, 0x6d, 0x2f, 0x7a, 0x65, 0x72, 0x6f, 0x73, 0x00, 0x00, 0x00, 0x02, 0x00, 0x00, 0x00, 0x04, 0x00, 0x00, 0x00, 0x14, 0x00, 0x00, 0x00, 0x00, 0x00, 0x16, 0x00, 0x18, 0x00, 0x14, 0x00, 0x00, 0x00, 0x10, 0x00, 0x0c, 0x00, 0x08, 0x00, 0x00, 0x00, 0x00, 0x00, 0x00, 0x00, 0x07, 0x00, 0x16, 0x00, 0x00, 0x00, 0x00, 0x00, 0x00, 0x01, 0x14, 0x00, 0x00, 0x00, 0x14, 0x00, 0x00, 0x00, 0x01, 0x00, 0x00, 0x00, 0x24, 0x00, 0x00, 0x00, 0x04, 0x00, 0x04, 0x00, 0x04, 0x00, 0x00, 0x00, 0x13, 0x00, 0x00, 0x00, 0x73, 0x65, 0x72, 0x76, 0x69, 0x6e, 0x67, 0x5f, 0x64, 0x65, 0x66, 0x61, 0x75, 0x6c, 0x74, 0x5f, 0x78, 0x3a, 0x30, 0x00, 0x03, 0x00, 0x00, 0x00, 0x04, 0x00, 0x00, 0x00, 0x05, 0x00, 0x00, 0x00, 0x01, 0x00, 0x00, 0x00, 0x03, 0x00, 0x00, 0x00, 0x30, 0x00, 0x00, 0x00, 0x14, 0x00, 0x00, 0x00, 0x04, 0x00, 0x00, 0x00, 0xe8, 0xff, 0xff, 0xff, 0x09, 0x00, 0x00, 0x00, 0x00, 0x00, 0x00, 0x09, 0xf4, 0xff, 0xff, 0xff, 0x2d, 0x00, 0x00, 0x00, 0x00, 0x00, 0x00, 0x2d, 0x0c, 0x00, 0x0c, 0x00, 0x0b, 0x00, 0x00, 0x00, 0x00, 0x00, 0x04, 0x00, 0x0c, 0x00, 0x00, 0x00, 0x2c, 0x00, 0x00, 0x00, 0x00, 0x00, 0x00, 0x2c};
const int AirQualityModel_len = 10716;
float x_test[5] = { 0.17820177822943262, 0.13932285450054016, 0.1448233133694416, 0.14903409734511341, 0.11468296491200151 };
const float y_test = 0.1488345481423325;