
#ifdef __has_attribute
#define HAVE_ATTRIBUTE(x) __has_attribute(x)
#else
#define HAVE_ATTRIBUTE(x) 0
#endif
#if HAVE_ATTRIBUTE(aligned) || (defined(__GNUC__) && !defined(__clang__))
#define DATA_ALIGN_ATTRIBUTE __attribute__((aligned(4)))
#else
#define DATA_ALIGN_ATTRIBUTE
#endif

const unsigned char HandwrittenDigitsModel[] DATA_ALIGN_ATTRIBUTE = {
	0x1c, 0x00, 0x00, 0x00, 0x54, 0x46, 0x4c, 0x33, 0x14, 0x00, 0x20, 0x00, 
	0x1c, 0x00, 0x18, 0x00, 0x14, 0x00, 0x10, 0x00, 0x0c, 0x00, 0x00, 0x00, 
	0x08, 0x00, 0x04, 0x00, 0x14, 0x00, 0x00, 0x00, 0x1c, 0x00, 0x00, 0x00, 
	0x88, 0x00, 0x00, 0x00, 0xe0, 0x00, 0x00, 0x00, 0x50, 0x18, 0x00, 0x00, 
	0x60, 0x18, 0x00, 0x00, 0xdc, 0x1f, 0x00, 0x00, 0x03, 0x00, 0x00, 0x00, 
	0x01, 0x00, 0x00, 0x00, 0x04, 0x00, 0x00, 0x00, 0x2a, 0xe7, 0xff, 0xff, 
	0x0c, 0x00, 0x00, 0x00, 0x1c, 0x00, 0x00, 0x00, 0x38, 0x00, 0x00, 0x00, 
	0x0f, 0x00, 0x00, 0x00, 0x73, 0x65, 0x72, 0x76, 0x69, 0x6e, 0x67, 0x5f, 
	0x64, 0x65, 0x66, 0x61, 0x75, 0x6c, 0x74, 0x00, 0x01, 0x00, 0x00, 0x00, 
	0x04, 0x00, 0x00, 0x00, 0x94, 0xff, 0xff, 0xff, 0x0c, 0x00, 0x00, 0x00, 
	0x04, 0x00, 0x00, 0x00, 0x05, 0x00, 0x00, 0x00, 0x64, 0x65, 0x6e, 0x73, 
	0x65, 0x00, 0x00, 0x00, 0x01, 0x00, 0x00, 0x00, 0x04, 0x00, 0x00, 0x00, 
	0x4e, 0xe8, 0xff, 0xff, 0x04, 0x00, 0x00, 0x00, 0x0c, 0x00, 0x00, 0x00, 
	0x63, 0x6f, 0x6e, 0x76, 0x32, 0x64, 0x5f, 0x69, 0x6e, 0x70, 0x75, 0x74, 
	0x00, 0x00, 0x00, 0x00, 0x02, 0x00, 0x00, 0x00, 0x34, 0x00, 0x00, 0x00, 
	0x04, 0x00, 0x00, 0x00, 0xdc, 0xff, 0xff, 0xff, 0x0f, 0x00, 0x00, 0x00, 
	0x04, 0x00, 0x00, 0x00, 0x13, 0x00, 0x00, 0x00, 0x43, 0x4f, 0x4e, 0x56, 
	0x45, 0x52, 0x53, 0x49, 0x4f, 0x4e, 0x5f, 0x4d, 0x45, 0x54, 0x41, 0x44, 
	0x41, 0x54, 0x41, 0x00, 0x08, 0x00, 0x0c, 0x00, 0x08, 0x00, 0x04, 0x00, 
	0x08, 0x00, 0x00, 0x00, 0x0e, 0x00, 0x00, 0x00, 0x04, 0x00, 0x00, 0x00, 
	0x13, 0x00, 0x00, 0x00, 0x6d, 0x69, 0x6e, 0x5f, 0x72, 0x75, 0x6e, 0x74, 
	0x69, 0x6d, 0x65, 0x5f, 0x76, 0x65, 0x72, 0x73, 0x69, 0x6f, 0x6e, 0x00, 
	0x10, 0x00, 0x00, 0x00, 0x6c, 0x17, 0x00, 0x00, 0x64, 0x17, 0x00, 0x00, 
	0x34, 0x17, 0x00, 0x00, 0xdc, 0x16, 0x00, 0x00, 0xac, 0x15, 0x00, 0x00, 
	0x9c, 0x03, 0x00, 0x00, 0x64, 0x03, 0x00, 0x00, 0x4c, 0x03, 0x00, 0x00, 
	0xbc, 0x00, 0x00, 0x00, 0xb4, 0x00, 0x00, 0x00, 0xac, 0x00, 0x00, 0x00, 
	0xa4, 0x00, 0x00, 0x00, 0x9c, 0x00, 0x00, 0x00, 0x94, 0x00, 0x00, 0x00, 
	0x74, 0x00, 0x00, 0x00, 0x04, 0x00, 0x00, 0x00, 0x0a, 0xe9, 0xff, 0xff, 
	0x04, 0x00, 0x00, 0x00, 0x60, 0x00, 0x00, 0x00, 0x0c, 0x00, 0x00, 0x00, 
	0x08, 0x00, 0x0e, 0x00, 0x08, 0x00, 0x04, 0x00, 0x08, 0x00, 0x00, 0x00, 
	0x10, 0x00, 0x00, 0x00, 0x24, 0x00, 0x00, 0x00, 0x00, 0x00, 0x06, 0x00, 
	0x08, 0x00, 0x04, 0x00, 0x06, 0x00, 0x00, 0x00, 0x04, 0x00, 0x00, 0x00, 
	0x00, 0x00, 0x00, 0x00, 0x00, 0x00, 0x0a, 0x00, 0x10, 0x00, 0x0c, 0x00, 
	0x08, 0x00, 0x04, 0x00, 0x0a, 0x00, 0x00, 0x00, 0x02, 0x00, 0x00, 0x00, 
	0x02, 0x00, 0x00, 0x00, 0x04, 0x00, 0x00, 0x00, 0x12, 0x00, 0x00, 0x00, 
	0x32, 0x2e, 0x31, 0x34, 0x2e, 0x30, 0x2d, 0x64, 0x65, 0x76, 0x32, 0x30, 
	0x32, 0x33, 0x30, 0x35, 0x31, 0x39, 0x00, 0x00, 0x76, 0xe9, 0xff, 0xff, 
	0x04, 0x00, 0x00, 0x00, 0x10, 0x00, 0x00, 0x00, 0x31, 0x2e, 0x35, 0x2e, 
	0x30, 0x00, 0x00, 0x00, 0x00, 0x00, 0x00, 0x00, 0x00, 0x00, 0x00, 0x00, 
	0x04, 0xe2, 0xff, 0xff, 0x08, 0xe2, 0xff, 0xff, 0x0c, 0xe2, 0xff, 0xff, 
	0x10, 0xe2, 0xff, 0xff, 0x14, 0xe2, 0xff, 0xff, 0xa6, 0xe9, 0xff, 0xff, 
	0x04, 0x00, 0x00, 0x00, 0x80, 0x02, 0x00, 0x00, 0x49, 0x33, 0xaa, 0xbe, 
	0xb6, 0x57, 0x1a, 0xbf, 0x86, 0x40, 0x74, 0xbe, 0x14, 0x18, 0x25, 0xbf, 
	0x69, 0x28, 0xb3, 0x3e, 0x86, 0x35, 0x02, 0x3f, 0x70, 0xfb, 0xe1, 0x3e, 
	0xa6, 0xba, 0x4e, 0xbf, 0x2b, 0x31, 0x30, 0x3f, 0x21, 0x91, 0x58, 0xbe, 
	0x1c, 0x9e, 0xa0, 0x3d, 0xfe, 0xec, 0x52, 0x3e, 0x9c, 0xa6, 0x13, 0x3e, 
	0x76, 0x8b, 0x92, 0xbf, 0xa5, 0x7e, 0x26, 0xbe, 0x39, 0x29, 0xd5, 0xbe, 
	0xf2, 0x73, 0xbe, 0xbe, 0xfe, 0x7b, 0xf4, 0x3e, 0x1c, 0xeb, 0x63, 0xbe, 
	0x2c, 0xf4, 0x2a, 0x3d, 0xcd, 0x72, 0xee, 0xbe, 0x3d, 0xb0, 0x81, 0xbe, 
	0xa4, 0x0a, 0x0e, 0x3e, 0x00, 0x0d, 0x6d, 0x3c, 0xc3, 0x79, 0x0d, 0xbf, 
	0xac, 0x26, 0x0d, 0xbb, 0xa8, 0xd0, 0x4b, 0xbf, 0x21, 0x30, 0x7f, 0xbf, 
	0xd0, 0x59, 0xf6, 0xbc, 0xba, 0x18, 0x05, 0x3f, 0x28, 0x1b, 0x03, 0x3f, 
	0x27, 0xda, 0xc1, 0x3c, 0xf2, 0x15, 0x26, 0x3f, 0x73, 0x1c, 0x12, 0x3f, 
	0xd4, 0xa1, 0x45, 0x3e, 0xf5, 0xf1, 0xc4, 0xbe, 0x3d, 0x02, 0xdf, 0xbe, 
	0x53, 0x90, 0xd1, 0x3d, 0x06, 0xd2, 0xc4, 0xbe, 0x80, 0xb4, 0x2c, 0xbe, 
	0x7d, 0x44, 0xb9, 0xbe, 0xb2, 0xef, 0xb5, 0xbe, 0x8f, 0x64, 0xc3, 0xbe, 
	0xb5, 0x54, 0x3c, 0x3f, 0x30, 0xf8, 0x92, 0x3c, 0x97, 0xa7, 0xac, 0x3e, 
	0xc1, 0xca, 0x7a, 0xbf, 0x15, 0x9f, 0xda, 0x3e, 0x53, 0x37, 0xa5, 0xbf, 
	0x05, 0x64, 0x24, 0x3e, 0xa8, 0xf0, 0x83, 0xbe, 0x7f, 0xd8, 0x8e, 0x3e, 
	0x8e, 0xb8, 0xe3, 0x3e, 0xff, 0x73, 0xf2, 0xbe, 0xae, 0x36, 0xe1, 0x3e, 
	0x85, 0xf2, 0xa2, 0xbe, 0x1b, 0xe0, 0x3d, 0xbe, 0x0c, 0x3e, 0x08, 0x3e, 
	0x44, 0x87, 0xcc, 0x3e, 0x15, 0x24, 0x74, 0x3d, 0x80, 0x4c, 0xb8, 0xbc, 
	0xa6, 0x02, 0xc9, 0x3d, 0xf0, 0xd7, 0x44, 0xbf, 0xea, 0x82, 0xae, 0x3e, 
	0x70, 0xdb, 0xca, 0x3d, 0xbf, 0x3c, 0x7b, 0x3e, 0x00, 0xd9, 0xdd, 0xbc, 
	0x9a, 0x5c, 0x85, 0xbf, 0x8b, 0x3f, 0x97, 0xbe, 0x79, 0x8a, 0x1d, 0xbe, 
	0x70, 0x38, 0x23, 0x3e, 0xe6, 0x11, 0xbf, 0x3e, 0xd8, 0x6d, 0x59, 0x3e, 
	0x82, 0xb6, 0x92, 0xbf, 0xee, 0x3d, 0x79, 0x3d, 0x91, 0x57, 0x89, 0xbf, 
	0x80, 0x14, 0x0a, 0x3d, 0x8e, 0x3e, 0x03, 0xbf, 0xc2, 0x7c, 0xd4, 0x3e, 
	0x34, 0x3e, 0x1d, 0xbe, 0x14, 0x7c, 0x16, 0x3e, 0x8d, 0xb1, 0x7c, 0xbe, 
	0xf0, 0xad, 0x5c, 0x3d, 0x77, 0xd1, 0x05, 0xbf, 0x65, 0xf6, 0xdb, 0xbe, 
	0x12, 0x88, 0x91, 0xbf, 0x4a, 0x34, 0x5b, 0xbe, 0x6b, 0x60, 0xf4, 0xbe, 
	0x2a, 0x66, 0x18, 0x3f, 0x09, 0x31, 0x8a, 0xbd, 0xec, 0x6a, 0x1e, 0xbf, 
	0xad, 0xd8, 0x98, 0x3e, 0xec, 0x51, 0xf2, 0xbe, 0x06, 0x98, 0x03, 0x3f, 
	0xde, 0x17, 0xbd, 0x3e, 0x05, 0x61, 0x22, 0x3e, 0x85, 0x2a, 0x30, 0xbf, 
	0x20, 0x59, 0xca, 0xbe, 0x0a, 0x68, 0xdb, 0xbe, 0xaa, 0xa3, 0x91, 0x3e, 
	0xfc, 0x81, 0xda, 0x3b, 0x67, 0x15, 0x5e, 0xbc, 0xe4, 0x7b, 0x1c, 0xbe, 
	0xe0, 0xbb, 0x08, 0x3f, 0xa7, 0x1a, 0x98, 0xbd, 0xb1, 0x95, 0x60, 0xbf, 
	0x7d, 0x7b, 0x5f, 0xbf, 0xb2, 0xff, 0xda, 0x3e, 0xc8, 0x80, 0x88, 0xbd, 
	0x0f, 0x4f, 0x29, 0xbf, 0x04, 0x78, 0xc9, 0x3e, 0xd0, 0x24, 0x86, 0xbe, 
	0x25, 0x41, 0x3e, 0x3d, 0x0b, 0x2d, 0xa2, 0x3e, 0xea, 0xc8, 0xd5, 0x3e, 
	0xb6, 0x99, 0x40, 0xbf, 0xb2, 0xf5, 0xe1, 0xbd, 0x24, 0x04, 0xb1, 0xbe, 
	0x49, 0x92, 0xcc, 0xbe, 0x6f, 0x51, 0xbf, 0xbf, 0x21, 0x47, 0xfb, 0xbe, 
	0x2d, 0xf7, 0x6c, 0xbe, 0xcb, 0x32, 0x09, 0x3f, 0x69, 0x5f, 0x0b, 0xbf, 
	0xa0, 0x38, 0xda, 0x3c, 0x93, 0xea, 0x40, 0xbf, 0xef, 0x6e, 0xf6, 0x3e, 
	0x08, 0x26, 0xa9, 0x3d, 0x03, 0x61, 0x26, 0x3e, 0xab, 0x71, 0x86, 0xbe, 
	0x60, 0xe5, 0x1a, 0x3c, 0x07, 0x14, 0xf9, 0x3e, 0xdd, 0x83, 0xac, 0x3e, 
	0xd7, 0x8e, 0x8a, 0x3c, 0xf0, 0xaf, 0x8e, 0xbc, 0x0c, 0xd9, 0xf9, 0xbd, 
	0x8e, 0xad, 0x3a, 0xbf, 0x0d, 0xa8, 0x61, 0x3d, 0x71, 0x07, 0xec, 0xbe, 
	0x67, 0x46, 0xce, 0x3d, 0x44, 0x48, 0x51, 0x3e, 0x7e, 0xf9, 0xe3, 0xbe, 
	0x6b, 0x7e, 0x3e, 0x3e, 0x7d, 0xd4, 0xa5, 0x3e, 0x64, 0x6a, 0x03, 0x3f, 
	0xd8, 0x7c, 0x6a, 0xbf, 0x40, 0xac, 0x1e, 0x3d, 0x8a, 0xe3, 0xf4, 0x3d, 
	0x7d, 0xab, 0x83, 0x3e, 0x83, 0x35, 0x27, 0xbf, 0xd0, 0x03, 0xf0, 0xbc, 
	0x3d, 0x6b, 0x17, 0xbe, 0x08, 0x23, 0x22, 0x3e, 0xe3, 0x9f, 0xeb, 0x3d, 
	0x9d, 0x17, 0x06, 0x3f, 0xfa, 0x8e, 0x6e, 0xbf, 0xe2, 0x72, 0x8a, 0x3e, 
	0x59, 0xde, 0xf6, 0x3e, 0x3e, 0x81, 0xd1, 0xbe, 0x03, 0x02, 0x15, 0xbd, 
	0x32, 0xec, 0xff, 0xff, 0x04, 0x00, 0x00, 0x00, 0x08, 0x00, 0x00, 0x00, 
	0xff, 0xff, 0xff, 0xff, 0x10, 0x00, 0x00, 0x00, 0x46, 0xec, 0xff, 0xff, 
	0x04, 0x00, 0x00, 0x00, 0x28, 0x00, 0x00, 0x00, 0xc2, 0x9a, 0xc4, 0xbd, 
	0x91, 0x13, 0x60, 0x3a, 0x09, 0x7e, 0x45, 0xbd, 0xef, 0x5f, 0xba, 0x3d, 
	0xcb, 0xd3, 0xe1, 0x3c, 0x9d, 0x8a, 0xb5, 0xbc, 0x9a, 0xbb, 0xb1, 0xbd, 
	0x11, 0x16, 0x9b, 0x3d, 0xdc, 0xb4, 0x0a, 0x3d, 0x52, 0x26, 0xa4, 0xbc, 
	0x7a, 0xec, 0xff, 0xff, 0x04, 0x00, 0x00, 0x00, 0x00, 0x12, 0x00, 0x00, 
	0x67, 0xa3, 0x59, 0x3e, 0x05, 0xae, 0x32, 0xbd, 0x61, 0xf3, 0x56, 0x3e, 
	0xd1, 0x07, 0x1e, 0x3e, 0x41, 0x74, 0x84, 0x3e, 0x84, 0x37, 0x08, 0xbe, 
	0x5a, 0x42, 0xb6, 0xbc, 0x76, 0x37, 0x44, 0x3e, 0x36, 0x67, 0xe5, 0x3d, 
	0xc6, 0x6c, 0x44, 0x3d, 0xf6, 0xa6, 0xba, 0x3d, 0x67, 0xb2, 0xc1, 0xbe, 
	0xdd, 0x49, 0x17, 0x3d, 0x76, 0xba, 0xa0, 0xbd, 0x20, 0x1e, 0x65, 0xbe, 
	0x5a, 0xa4, 0x88, 0x3e, 0x9e, 0xd1, 0xea, 0x3d, 0x80, 0x27, 0x05, 0xbf, 
	0xe8, 0xe6, 0x84, 0xbc, 0x96, 0xdf, 0x0f, 0x3e, 0x1e, 0xa9, 0x8b, 0x3e, 
	0x1a, 0x27, 0xbe, 0xbb, 0x1e, 0x6e, 0x65, 0x3e, 0xd7, 0x2f, 0x6c, 0xbe, 
	0x2b, 0x4b, 0x76, 0x3e, 0x0f, 0x30, 0xcb, 0x3e, 0xa9, 0xb1, 0xcb, 0x3b, 
	0x42, 0xed, 0xd7, 0xbd, 0x2c, 0xd3, 0x9a, 0x3d, 0xb2, 0x8c, 0x84, 0xbe, 
	0x18, 0x18, 0x1b, 0x3d, 0xab, 0xf9, 0xfc, 0x3d, 0x6c, 0x46, 0x6b, 0xbe, 
	0x4b, 0x78, 0xd2, 0x3e, 0x59, 0x01, 0x5e, 0xbe, 0xc6, 0xb6, 0x8a, 0x3c, 
	0xf1, 0x48, 0xd3, 0xbd, 0x05, 0xff, 0xc4, 0x3d, 0xcd, 0x4f, 0x7c, 0x3e, 
	0x6f, 0x33, 0x3c, 0xbd, 0x4e, 0x66, 0xd6, 0x3d, 0x79, 0x87, 0x54, 0x3f, 
	0x11, 0x11, 0x18, 0x3e, 0x18, 0x45, 0x64, 0xbd, 0xc2, 0xe2, 0x17, 0xbe, 
	0xc2, 0xa4, 0x6e, 0x3d, 0xba, 0x14, 0xc8, 0x3e, 0xac, 0x37, 0xa2, 0x3e, 
	0x0d, 0x88, 0x08, 0xbe, 0x6b, 0x14, 0xb5, 0x3e, 0xbe, 0x05, 0xd2, 0xbe, 
	0x10, 0x4e, 0x24, 0xbf, 0x59, 0x65, 0x28, 0x3e, 0xb9, 0x73, 0xf3, 0x3e, 
	0xaf, 0xb5, 0x5c, 0x3e, 0xab, 0x31, 0x45, 0x3e, 0xd9, 0x38, 0x54, 0x3c, 
	0xd5, 0x4e, 0x1f, 0x3e, 0xc2, 0xda, 0x6f, 0x3e, 0x2f, 0x00, 0x13, 0x3f, 
	0x0b, 0xad, 0x69, 0x3d, 0xe3, 0x8c, 0x30, 0x3e, 0x3c, 0x66, 0x87, 0x3c, 
	0xf6, 0x7b, 0x82, 0x3e, 0xa1, 0x36, 0x5c, 0xbe, 0xa3, 0x3b, 0xf7, 0xbd, 
	0x28, 0xba, 0x55, 0xbe, 0x09, 0x6d, 0x28, 0xbe, 0x67, 0xf4, 0x52, 0xbd, 
	0xd8, 0x48, 0x67, 0xbe, 0x38, 0x40, 0xf5, 0xbe, 0xc8, 0xb1, 0x23, 0xbe, 
	0xb4, 0x51, 0x8d, 0xbe, 0xd0, 0xd1, 0x20, 0x3f, 0xc9, 0xa7, 0x0a, 0xbf, 
	0x20, 0x36, 0x15, 0xbf, 0xbf, 0xb1, 0xa1, 0xbe, 0xfb, 0x5f, 0x38, 0xbc, 
	0x44, 0x22, 0xac, 0x3d, 0x59, 0x48, 0x16, 0xbd, 0xcd, 0x08, 0x88, 0x3e, 
	0x2c, 0x4a, 0xda, 0xbc, 0x0d, 0x4e, 0x9d, 0x3d, 0xac, 0x58, 0x21, 0x3f, 
	0xb9, 0xa4, 0xa0, 0x3e, 0x7e, 0x16, 0xcb, 0x3c, 0xf8, 0x53, 0xbe, 0x3e, 
	0x26, 0x9d, 0x3e, 0xbe, 0xff, 0x99, 0x5b, 0xbd, 0xb6, 0xe0, 0xb1, 0x3e, 
	0xf5, 0xf2, 0x0e, 0x3e, 0x4f, 0x60, 0xae, 0xbe, 0xca, 0xbc, 0x06, 0x3c, 
	0x3e, 0xb9, 0x70, 0x3d, 0x31, 0xa6, 0x84, 0xbe, 0xd5, 0xbf, 0xe5, 0x3c, 
	0xf1, 0xc9, 0x58, 0xbe, 0x96, 0x90, 0x25, 0x3e, 0x85, 0xb9, 0x8f, 0x3c, 
	0x44, 0x14, 0x81, 0xbe, 0x37, 0xdf, 0x7a, 0x3d, 0x64, 0x94, 0x94, 0x3e, 
	0x7f, 0xe7, 0x37, 0xbe, 0x59, 0x71, 0x8e, 0xbe, 0x80, 0x6f, 0x95, 0x3e, 
	0x86, 0x80, 0xd0, 0xbe, 0xc1, 0x45, 0x6c, 0xbc, 0x18, 0x4a, 0x96, 0x3e, 
	0xac, 0x0e, 0xf6, 0x3d, 0xed, 0x20, 0x46, 0x3d, 0x6e, 0xd3, 0xc4, 0x3e, 
	0x5f, 0xfd, 0xf7, 0xbe, 0x6d, 0xfc, 0x4f, 0x3e, 0xa4, 0xaf, 0x7a, 0xbe, 
	0x8e, 0x3b, 0xf3, 0xbc, 0x02, 0x6c, 0x69, 0xbd, 0xfe, 0x6a, 0x47, 0xbe, 
	0xa3, 0x34, 0xcb, 0x3d, 0x38, 0xe2, 0x83, 0xbe, 0x46, 0xcd, 0x60, 0xbd, 
	0x77, 0xc1, 0x3f, 0xbc, 0x8f, 0x4c, 0xa2, 0x3e, 0x77, 0x43, 0x80, 0xbe, 
	0x46, 0x1b, 0x12, 0xbf, 0xc7, 0xb5, 0xdd, 0xbd, 0xfc, 0xeb, 0x90, 0x3e, 
	0x23, 0x1c, 0x8b, 0x3e, 0x14, 0x16, 0xb9, 0xbb, 0xc5, 0x35, 0xd6, 0x3e, 
	0xc2, 0x3e, 0x2b, 0xbe, 0x3e, 0x2f, 0xd1, 0x3e, 0x4b, 0xb0, 0xb7, 0x3e, 
	0x5e, 0xa5, 0xdb, 0x3e, 0x85, 0x0c, 0x53, 0x3e, 0x15, 0xe8, 0x92, 0x3e, 
	0xb1, 0x89, 0xa6, 0x3e, 0x06, 0x1c, 0xa8, 0x3e, 0xd6, 0xbe, 0x56, 0x3e, 
	0x83, 0x16, 0xa6, 0x3d, 0xf4, 0x1d, 0x59, 0xbe, 0x19, 0xf6, 0x73, 0x3e, 
	0x41, 0xa4, 0x45, 0x3c, 0xde, 0xdf, 0x13, 0xbf, 0xb1, 0x77, 0x93, 0xbe, 
	0xfa, 0x1f, 0x83, 0x3d, 0x66, 0x40, 0x19, 0xbe, 0x63, 0xdc, 0x1e, 0x3e, 
	0xc1, 0x60, 0x0f, 0x3e, 0x4b, 0x1e, 0xe5, 0xbd, 0xb3, 0x12, 0x03, 0xbe, 
	0x60, 0x8d, 0x8f, 0xbd, 0x66, 0x65, 0xf3, 0x3d, 0x00, 0x16, 0x59, 0x3b, 
	0x76, 0x65, 0x8e, 0xbd, 0xde, 0xab, 0x04, 0xbe, 0xb0, 0xb6, 0x0f, 0xbe, 
	0x46, 0xcb, 0x9f, 0x3d, 0x30, 0x44, 0x2b, 0xbc, 0xc0, 0xf2, 0x5f, 0xbd, 
	0x6b, 0xb5, 0xeb, 0xbd, 0xf8, 0x8d, 0x00, 0xbe, 0xa0, 0xe9, 0x80, 0xbb, 
	0x0c, 0x5a, 0x7f, 0xbd, 0x00, 0x56, 0x4a, 0xbd, 0xeb, 0x10, 0x97, 0xbd, 
	0x93, 0xf1, 0x0f, 0x3e, 0xc0, 0x75, 0xfb, 0xbd, 0xf3, 0x80, 0x0f, 0x3e, 
	0x6b, 0x69, 0x11, 0x3e, 0xb6, 0x4e, 0xc7, 0x3d, 0x75, 0x4f, 0x28, 0x3e, 
	0x96, 0xe3, 0xf4, 0xbd, 0xe0, 0xb3, 0x83, 0xbd, 0x79, 0xcc, 0x22, 0x3e, 
	0xb3, 0x8e, 0x01, 0xbe, 0x60, 0x47, 0xe0, 0xbd, 0x28, 0xcd, 0x8b, 0xbc, 
	0xa0, 0xeb, 0x0c, 0xbd, 0xd0, 0x9a, 0x4e, 0x3c, 0x8c, 0xcf, 0x1f, 0xbd, 
	0x73, 0xea, 0x01, 0x3e, 0x80, 0x1a, 0xeb, 0x3c, 0xe0, 0xac, 0xd4, 0xbd, 
	0xed, 0xce, 0x21, 0x3e, 0x23, 0x3d, 0x06, 0xbe, 0xec, 0x39, 0x07, 0x3d, 
	0x50, 0x41, 0x22, 0xbc, 0x72, 0x31, 0xf9, 0x3d, 0x08, 0xde, 0x23, 0xbe, 
	0xeb, 0xab, 0xce, 0xbd, 0x9a, 0x8d, 0xbb, 0x3d, 0x49, 0x7a, 0x0e, 0x3e, 
	0x60, 0xe2, 0x3f, 0x3d, 0x4d, 0xa4, 0x1c, 0x3e, 0xdb, 0x2a, 0xf0, 0xbd, 
	0x14, 0xd3, 0x0a, 0xbd, 0xf6, 0x7b, 0x99, 0xbd, 0x7a, 0x78, 0xa3, 0x3d, 
	0xd0, 0x25, 0x96, 0x3d, 0x56, 0x46, 0x0e, 0xbe, 0x5b, 0x30, 0xae, 0xbd, 
	0x2b, 0xf7, 0x16, 0xbe, 0x70, 0x39, 0x86, 0x3d, 0xb6, 0x46, 0xe8, 0x3d, 
	0x40, 0x9f, 0x12, 0xbb, 0xe0, 0x73, 0x4f, 0xbd, 0xf6, 0x4b, 0xb0, 0xbd, 
	0x03, 0x4d, 0x0f, 0xbe, 0x30, 0x85, 0x0b, 0xbc, 0x26, 0x33, 0xa2, 0xbd, 
	0x98, 0x79, 0x27, 0xbe, 0xa0, 0xc8, 0x84, 0xbb, 0xac, 0xac, 0x1d, 0x3d, 
	0xa6, 0xdd, 0x0c, 0xbe, 0x62, 0x75, 0xb8, 0x3d, 0xd0, 0x70, 0xf2, 0xbd, 
	0xc9, 0xc8, 0xf7, 0x3c, 0x57, 0x5b, 0x5f, 0xbc, 0xf5, 0x1d, 0x9c, 0x3e, 
	0xd7, 0xea, 0x8b, 0x3e, 0xbb, 0x5a, 0xcd, 0x3d, 0x0f, 0xda, 0x92, 0x3e, 
	0x9b, 0xd7, 0x35, 0xbd, 0x0d, 0xf6, 0x02, 0x3e, 0xcb, 0x23, 0x1f, 0xbd, 
	0x6a, 0xd9, 0x82, 0xbe, 0x9f, 0x0a, 0x7b, 0xbd, 0xf2, 0x32, 0xf6, 0x3d, 
	0xeb, 0xff, 0x9f, 0x3d, 0x9d, 0x3a, 0x8d, 0x3a, 0x0d, 0x15, 0x0b, 0xbd, 
	0xb8, 0x30, 0xec, 0xbc, 0x03, 0x50, 0x85, 0x3d, 0xcf, 0x3a, 0x12, 0x3d, 
	0x1a, 0xe7, 0x96, 0x3d, 0x71, 0xa9, 0xf9, 0x3e, 0x23, 0x4e, 0xf6, 0x3c, 
	0xbc, 0x69, 0xf5, 0x3d, 0x55, 0xaa, 0x1b, 0xbd, 0x3d, 0x97, 0x06, 0x3e, 
	0xd0, 0xfd, 0x74, 0xbd, 0xe4, 0x91, 0x4c, 0xbe, 0xd7, 0x6e, 0x83, 0xbe, 
	0xc3, 0x40, 0xcd, 0xbe, 0x0b, 0xe9, 0x39, 0xbe, 0xec, 0x70, 0x32, 0xbf, 
	0x09, 0x76, 0xc5, 0x3c, 0xad, 0x5c, 0x33, 0x3e, 0x8f, 0xf0, 0x20, 0x3e, 
	0x79, 0xe5, 0x39, 0xbe, 0x0b, 0xa6, 0xf2, 0x3e, 0x10, 0xb3, 0x13, 0x3e, 
	0xc7, 0xff, 0x44, 0x3e, 0x6f, 0xbd, 0xa3, 0x3d, 0x3e, 0x66, 0x94, 0x3d, 
	0xae, 0x9c, 0xbf, 0x3e, 0xb7, 0xb0, 0x08, 0x3e, 0xf6, 0x69, 0xd8, 0x3e, 
	0xcc, 0xd7, 0x09, 0x3e, 0xa5, 0xfe, 0xdf, 0x3c, 0xf9, 0xc7, 0x07, 0x3c, 
	0xab, 0x8e, 0x16, 0x3d, 0x7f, 0xee, 0x93, 0xbf, 0xb9, 0xc6, 0xcd, 0xbd, 
	0xdc, 0x68, 0xa8, 0xbd, 0x4c, 0x7f, 0xe1, 0xbe, 0xb0, 0x5b, 0x0f, 0xbd, 
	0xfb, 0xce, 0x06, 0x3f, 0xd4, 0x3e, 0x5c, 0x3e, 0x2b, 0x7a, 0x0d, 0xbf, 
	0x03, 0xd9, 0x2b, 0x3e, 0x53, 0xad, 0xce, 0xbd, 0x55, 0xba, 0x2f, 0x3e, 
	0xb4, 0x08, 0x82, 0x3e, 0xf1, 0x90, 0x0a, 0x3e, 0x88, 0xf0, 0x63, 0xbe, 
	0xb2, 0x1f, 0x76, 0xbe, 0x35, 0x8a, 0x35, 0xbd, 0xa2, 0xd6, 0xe4, 0xbe, 
	0x61, 0x2e, 0xd9, 0x3d, 0x78, 0x83, 0x5a, 0x3e, 0x82, 0x31, 0x4b, 0xbf, 
	0x9f, 0x41, 0x91, 0x3e, 0x3c, 0xe9, 0x02, 0x3f, 0x49, 0xe4, 0xfc, 0x3d, 
	0xfa, 0xa7, 0x2c, 0x3d, 0x83, 0x93, 0x4f, 0x3f, 0xda, 0xb7, 0x7c, 0xbe, 
	0x19, 0x40, 0x2b, 0xbd, 0x4f, 0x37, 0x1c, 0x3d, 0x72, 0xc8, 0xb3, 0xbd, 
	0xbc, 0x3c, 0xff, 0xbd, 0x8c, 0x6c, 0xb6, 0xbd, 0x0f, 0x4b, 0x85, 0x3d, 
	0x71, 0x54, 0x1e, 0xbe, 0x42, 0xd6, 0xfd, 0xbd, 0x91, 0x4d, 0x64, 0xbd, 
	0xb0, 0xa8, 0xae, 0x3d, 0xf6, 0x5e, 0x79, 0x3d, 0x08, 0x0f, 0x49, 0xbe, 
	0x57, 0x73, 0x94, 0x3d, 0xf8, 0x33, 0x15, 0x3d, 0xd7, 0xe4, 0x3d, 0xbe, 
	0x54, 0x1c, 0x75, 0xbd, 0xe9, 0x0a, 0x2d, 0xbe, 0x84, 0xad, 0x21, 0x3c, 
	0x78, 0x53, 0x38, 0xbd, 0x1d, 0x81, 0x15, 0xbe, 0xf6, 0xda, 0x07, 0x3c, 
	0x59, 0xa4, 0x75, 0xbc, 0x2a, 0xd7, 0x27, 0x3c, 0xa1, 0xdd, 0x35, 0xbb, 
	0xc9, 0xc8, 0x83, 0xbd, 0x82, 0xe5, 0x4c, 0xbe, 0xf0, 0xf6, 0x0c, 0xbe, 
	0x12, 0x6e, 0x21, 0xbe, 0x53, 0x32, 0x04, 0x3e, 0x09, 0x19, 0x6c, 0x3d, 
	0xbf, 0xd7, 0x28, 0xbe, 0xba, 0xe8, 0x3c, 0xbb, 0x15, 0xc0, 0x02, 0xbe, 
	0x71, 0xd6, 0x04, 0x3e, 0x24, 0x81, 0x06, 0xbe, 0x9f, 0x38, 0xaf, 0x3d, 
	0x06, 0x62, 0x64, 0x3d, 0xc2, 0xbb, 0x34, 0xbe, 0x05, 0x18, 0x32, 0x3b, 
	0x19, 0x22, 0x59, 0x3d, 0x40, 0x04, 0xf6, 0x3b, 0xad, 0x29, 0xc7, 0xbd, 
	0x99, 0x8b, 0xe7, 0xbd, 0x86, 0x8c, 0xbd, 0x3d, 0x1f, 0xd8, 0xa3, 0xbd, 
	0xb7, 0x27, 0xb2, 0x3d, 0x07, 0x57, 0x34, 0xbe, 0x38, 0x62, 0x9c, 0x3d, 
	0xf9, 0x02, 0xd0, 0x3d, 0xa1, 0xb0, 0xbe, 0x3d, 0xec, 0x54, 0xdf, 0xbd, 
	0x2e, 0x87, 0x87, 0xbd, 0x3d, 0x91, 0xfc, 0x3d, 0xad, 0x10, 0xc2, 0x3d, 
	0xe6, 0xbf, 0x03, 0xbe, 0xc7, 0xbd, 0xf1, 0x3d, 0xa7, 0xa0, 0x22, 0xbc, 
	0x36, 0x93, 0xab, 0x3d, 0xe4, 0xc5, 0xd8, 0x3d, 0xb9, 0xc0, 0x05, 0x3d, 
	0xe6, 0xc4, 0x85, 0x3d, 0xea, 0xc4, 0x29, 0xbe, 0x75, 0x6a, 0x74, 0x3d, 
	0xac, 0xcc, 0x16, 0xbe, 0x71, 0xa4, 0x34, 0x3d, 0x8a, 0x58, 0x54, 0xbe, 
	0x7b, 0x5e, 0x31, 0x3d, 0x65, 0xbd, 0xd1, 0xbc, 0xd2, 0x39, 0x4c, 0xbe, 
	0xf1, 0x52, 0xd5, 0xbd, 0x5d, 0xc3, 0x7e, 0xbd, 0x6d, 0x6c, 0x1c, 0xbe, 
	0xe3, 0x2a, 0x59, 0xbe, 0x24, 0xa8, 0x2d, 0xbe, 0x0c, 0xd4, 0xd2, 0xbd, 
	0xcb, 0x74, 0x8b, 0x3d, 0x58, 0xc3, 0xb7, 0x3c, 0x4c, 0xa5, 0x25, 0xbd, 
	0x93, 0x72, 0x20, 0x3e, 0x88, 0x38, 0x55, 0xbd, 0x22, 0x38, 0x91, 0xbd, 
	0x04, 0xbe, 0x1b, 0xbe, 0x9a, 0x24, 0xa6, 0x39, 0x7b, 0x72, 0x9f, 0x3e, 
	0x22, 0xda, 0xc9, 0xbd, 0x4d, 0x1c, 0x03, 0x3e, 0x38, 0xb4, 0xf2, 0x3d, 
	0x46, 0x08, 0x8e, 0xbd, 0x4e, 0x69, 0x1c, 0x3c, 0x39, 0x88, 0x66, 0xbf, 
	0xb1, 0x19, 0x04, 0x3e, 0xac, 0xdc, 0xe3, 0x3c, 0xa1, 0x09, 0x6f, 0x3e, 
	0x15, 0x5f, 0xe2, 0x3d, 0x02, 0xd0, 0xcf, 0x3e, 0xe4, 0x62, 0x92, 0xbe, 
	0x45, 0x84, 0x48, 0x3e, 0x3c, 0xec, 0x76, 0xbe, 0x57, 0xbe, 0xf2, 0x3d, 
	0xa9, 0xc4, 0xcd, 0x3c, 0xa6, 0x01, 0xbf, 0x3d, 0x21, 0xac, 0xcb, 0x3e, 
	0x00, 0x8d, 0xd8, 0x3c, 0x75, 0x92, 0x2b, 0xbf, 0xaf, 0xfa, 0xf1, 0x3d, 
	0x1d, 0x82, 0x7a, 0xbe, 0xd3, 0x8e, 0x14, 0x3e, 0xaa, 0x37, 0x9b, 0x3e, 
	0x7a, 0x3f, 0x92, 0xbe, 0xb9, 0xa1, 0xa4, 0x3e, 0x26, 0x12, 0x91, 0x3e, 
	0xce, 0x50, 0x00, 0xbf, 0x12, 0x0b, 0x10, 0xbe, 0x23, 0xb1, 0xee, 0x3e, 
	0xba, 0xe4, 0xb3, 0xbd, 0x61, 0x42, 0x23, 0x3d, 0xe3, 0x81, 0x6c, 0xbe, 
	0x01, 0x59, 0x04, 0xbe, 0x28, 0xdf, 0xda, 0x3c, 0x49, 0x8a, 0x74, 0xbd, 
	0x0a, 0xd9, 0x08, 0x3d, 0xf2, 0x2e, 0x97, 0xbe, 0xb5, 0xf0, 0x9e, 0x3e, 
	0x01, 0x26, 0xf3, 0x3e, 0xfb, 0x9f, 0xa5, 0x3d, 0x96, 0x7e, 0xa5, 0xbd, 
	0x8b, 0x46, 0xf4, 0x3e, 0x48, 0xc1, 0xf6, 0x3e, 0xfc, 0x42, 0xa7, 0x3e, 
	0x39, 0xa6, 0x27, 0xbf, 0x48, 0xbb, 0xbe, 0x3e, 0xe3, 0xfb, 0xc7, 0xbe, 
	0x24, 0x7a, 0x51, 0xbd, 0xb9, 0x5b, 0xe6, 0x3e, 0xec, 0xb5, 0x52, 0xbd, 
	0x85, 0xa9, 0x5c, 0x3e, 0xfc, 0xcc, 0x65, 0x3e, 0x91, 0x63, 0x7b, 0xbe, 
	0x74, 0x97, 0x37, 0x3d, 0x39, 0x2e, 0x9e, 0x3e, 0xf4, 0x14, 0x6c, 0x3e, 
	0x92, 0xd7, 0x19, 0xbb, 0x6a, 0xea, 0x95, 0x3e, 0x91, 0x60, 0x94, 0xbd, 
	0xa0, 0xf5, 0xe6, 0x3b, 0x34, 0xf3, 0x3d, 0x3d, 0x56, 0x85, 0xac, 0xbd, 
	0xd3, 0x1f, 0x0d, 0xbe, 0x68, 0x52, 0x95, 0xbc, 0xd8, 0x1b, 0xae, 0xbc, 
	0x10, 0x8a, 0xf4, 0xbd, 0xa0, 0xb7, 0xf4, 0xbb, 0xc0, 0x12, 0x26, 0xbb, 
	0x60, 0x37, 0xec, 0xbd, 0xa6, 0xb8, 0xa6, 0xbd, 0x54, 0x06, 0x27, 0x3d, 
	0x83, 0xbf, 0x20, 0xbe, 0x00, 0x1d, 0x40, 0x3a, 0xb6, 0xcf, 0x3e, 0xbd, 
	0x56, 0x30, 0x9f, 0xbd, 0x10, 0xe5, 0xa6, 0xbd, 0xa0, 0x79, 0x03, 0xbe, 
	0x81, 0x93, 0x05, 0x3e, 0x0a, 0xd6, 0xf5, 0x3d, 0x6b, 0xc0, 0xa3, 0xbd, 
	0x0e, 0xb2, 0x0f, 0xbe, 0xe0, 0xa7, 0x1f, 0xbd, 0x0d, 0x2e, 0x19, 0x3e, 
	0x1b, 0x49, 0x1c, 0xbe, 0xf6, 0x32, 0x8c, 0xbd, 0x53, 0x5a, 0x11, 0xbe, 
	0x7b, 0x48, 0x02, 0x3e, 0x96, 0xbc, 0x88, 0x3d, 0x52, 0xea, 0xdb, 0x3d, 
	0xab, 0xdc, 0x20, 0xbe, 0x4d, 0xc8, 0x22, 0x3e, 0x98, 0xf1, 0xf8, 0xbc, 
	0xe3, 0xa5, 0x01, 0xbe, 0x50, 0x9e, 0x18, 0x3c, 0x98, 0xf0, 0xa1, 0xbc, 
	0xf0, 0x4d, 0x19, 0xbe, 0xc0, 0x5a, 0x0f, 0xbd, 0x06, 0xb8, 0xf6, 0xbd, 
	0x42, 0xca, 0xcd, 0x3d, 0x9b, 0xe0, 0xb6, 0xbd, 0x20, 0x95, 0x3c, 0x3d, 
	0xaa, 0xba, 0xd4, 0x3d, 0x43, 0x70, 0x08, 0xbe, 0xf9, 0x81, 0x0a, 0x3e, 
	0x28, 0xdf, 0x0e, 0xbe, 0x00, 0x3b, 0x5d, 0xbd, 0x6e, 0xb2, 0x1c, 0xbe, 
	0x60, 0x02, 0x02, 0x3d, 0x06, 0x0d, 0x19, 0xbe, 0x0b, 0xf2, 0x14, 0x3e, 
	0x8e, 0xf8, 0x27, 0xbe, 0x1d, 0xf9, 0x1a, 0x3e, 0x81, 0xe7, 0x13, 0x3e, 
	0x59, 0xf7, 0x0e, 0x3e, 0x90, 0x04, 0x8b, 0x3d, 0x4c, 0x6f, 0x66, 0x3d, 
	0x8b, 0x79, 0xaf, 0xbd, 0xdb, 0x15, 0x24, 0xbe, 0xda, 0x69, 0xbb, 0x3d, 
	0x46, 0x2a, 0x0e, 0xbe, 0x60, 0x13, 0xde, 0xbd, 0xa8, 0xad, 0x0c, 0xbe, 
	0xc0, 0x49, 0x8c, 0xbd, 0x40, 0x83, 0x94, 0x3c, 0xc6, 0x9a, 0xec, 0x3d, 
	0x80, 0xc6, 0xbe, 0xbd, 0x30, 0x88, 0x56, 0xbc, 0x30, 0x40, 0x95, 0x3d, 
	0xab, 0x2b, 0x27, 0x3e, 0xb0, 0x57, 0x31, 0x3c, 0x0d, 0x3f, 0x18, 0x3e, 
	0x67, 0x0a, 0xa2, 0x3d, 0xe4, 0xbe, 0x3d, 0xbf, 0x1f, 0x4a, 0x9f, 0xbc, 
	0xd2, 0x7b, 0xe3, 0x3d, 0x82, 0xb9, 0x5c, 0x3e, 0x34, 0x21, 0xbe, 0xbe, 
	0x9a, 0x38, 0xbd, 0x3d, 0xee, 0x8f, 0x4c, 0xbf, 0xa0, 0xae, 0x5a, 0x3e, 
	0xc7, 0x26, 0x26, 0xbf, 0x6a, 0x0f, 0x9f, 0x3d, 0xd7, 0xcd, 0xea, 0x3d, 
	0x55, 0x19, 0x8d, 0x3d, 0xe6, 0xca, 0xa0, 0xbc, 0x3e, 0x22, 0x35, 0xbd, 
	0xb1, 0x23, 0xdf, 0xbe, 0xeb, 0x24, 0x4c, 0xbe, 0x68, 0xdd, 0x8e, 0xbe, 
	0xc2, 0x82, 0x96, 0xbe, 0x41, 0xeb, 0x21, 0x3e, 0xb8, 0x47, 0x97, 0xbe, 
	0x1f, 0x26, 0xa1, 0xbe, 0x07, 0xb8, 0x9a, 0xbd, 0xd5, 0xe4, 0x86, 0xbe, 
	0x50, 0x67, 0x12, 0x3e, 0x0a, 0x83, 0xe7, 0x3d, 0xcc, 0x20, 0x15, 0x3e, 
	0x56, 0x7f, 0x8d, 0x3d, 0x36, 0xf7, 0xdf, 0x3e, 0xf3, 0x78, 0xa0, 0xbe, 
	0x49, 0x64, 0x05, 0x3e, 0xa6, 0xe6, 0x2e, 0xbd, 0x53, 0x79, 0x56, 0x3e, 
	0x4b, 0xbd, 0xf6, 0xbc, 0xa8, 0x46, 0x9e, 0x3d, 0x78, 0xf5, 0x67, 0x3e, 
	0x0d, 0x11, 0x4e, 0x3e, 0xb1, 0xcc, 0xdf, 0xbd, 0x25, 0x31, 0x66, 0xbe, 
	0x95, 0x3c, 0xaa, 0x3e, 0x93, 0xaf, 0x14, 0x3e, 0x12, 0x95, 0x97, 0x3e, 
	0x8e, 0x6a, 0x0e, 0xbd, 0xda, 0xa9, 0xc3, 0x3d, 0x74, 0x60, 0x89, 0x3e, 
	0x5d, 0xa5, 0x10, 0x3b, 0x5c, 0xdd, 0x93, 0xbe, 0x7a, 0xfb, 0xbd, 0xbd, 
	0xc9, 0xbd, 0xf1, 0x3d, 0x36, 0x82, 0xaf, 0x3e, 0x89, 0x5d, 0x94, 0x3d, 
	0x0d, 0x15, 0x90, 0x3d, 0x79, 0x65, 0xa1, 0x3b, 0xcd, 0x80, 0x8f, 0x3e, 
	0x2e, 0x21, 0x8d, 0x3d, 0x11, 0x28, 0xb2, 0x3e, 0x50, 0x4f, 0xc1, 0x3d, 
	0xcc, 0x43, 0x0c, 0x3e, 0x72, 0x92, 0x41, 0x3d, 0x52, 0x0d, 0x5c, 0xbe, 
	0x0b, 0x59, 0x82, 0x3e, 0x9b, 0x7c, 0x11, 0x3e, 0x5a, 0xf0, 0x6e, 0xbe, 
	0x92, 0x45, 0x76, 0x3e, 0x34, 0xde, 0x9f, 0x3e, 0x6d, 0x38, 0x13, 0xbf, 
	0x44, 0x6c, 0x2b, 0x3e, 0xaf, 0x5c, 0xb7, 0x3e, 0xde, 0x57, 0xaf, 0x3e, 
	0xef, 0xf0, 0x5c, 0x3e, 0x40, 0xd4, 0xeb, 0x3d, 0x65, 0xa5, 0xbb, 0xbe, 
	0xc2, 0x75, 0x9d, 0x3e, 0xfb, 0x7a, 0xf0, 0xbe, 0xcf, 0x8f, 0x4a, 0x3e, 
	0x0f, 0x8c, 0x0f, 0x3e, 0x5b, 0xdb, 0xaa, 0x3e, 0x5b, 0x18, 0x73, 0x3e, 
	0xea, 0x2b, 0x64, 0x3e, 0x31, 0x09, 0x5d, 0x3d, 0x4b, 0x73, 0xd4, 0x3c, 
	0x50, 0x20, 0xe4, 0x3e, 0xbc, 0x37, 0x4c, 0x3d, 0xdd, 0x1e, 0x4e, 0xbd, 
	0x13, 0x5a, 0x30, 0x3d, 0x2e, 0x4d, 0x39, 0x3e, 0xf5, 0x8f, 0x6f, 0xbd, 
	0x26, 0xae, 0x74, 0x3e, 0xa3, 0x5b, 0x1e, 0xbd, 0x0b, 0x79, 0x29, 0x3e, 
	0x1b, 0x02, 0x81, 0xbc, 0x6e, 0xcf, 0x53, 0xbe, 0x22, 0x19, 0x13, 0xbe, 
	0x74, 0x73, 0xb9, 0xbd, 0xee, 0x91, 0x89, 0xbe, 0x01, 0x82, 0x8a, 0x3d, 
	0x4c, 0x4b, 0x60, 0x3e, 0xe6, 0x16, 0x42, 0x3e, 0xcf, 0xab, 0x87, 0x3e, 
	0x39, 0xaa, 0x03, 0x3f, 0x55, 0x70, 0xee, 0x3d, 0xee, 0xf4, 0x1d, 0x3f, 
	0x9f, 0x25, 0x1f, 0xbd, 0x74, 0xca, 0x9d, 0x3e, 0xb1, 0x80, 0xae, 0xbe, 
	0xe6, 0xed, 0xce, 0x3e, 0x92, 0x3d, 0xa2, 0xbd, 0x8c, 0xac, 0xb1, 0xbe, 
	0x8e, 0x84, 0x09, 0xbf, 0x84, 0x9f, 0x88, 0xbd, 0xc1, 0xec, 0x73, 0xbe, 
	0x4e, 0x85, 0x8b, 0x3e, 0x30, 0x79, 0x88, 0xbd, 0x9e, 0x69, 0xf4, 0xbe, 
	0xb4, 0x4c, 0xc3, 0xbd, 0x07, 0x01, 0x06, 0x3e, 0xe2, 0x3a, 0x1a, 0x3e, 
	0xbb, 0xb1, 0x6e, 0xbd, 0x35, 0xf1, 0x35, 0x3f, 0x75, 0xe0, 0xea, 0xbd, 
	0x66, 0x67, 0x44, 0x3e, 0x6d, 0xc8, 0x65, 0x3e, 0x61, 0x34, 0x02, 0x3f, 
	0xc4, 0x2f, 0x9c, 0x3e, 0x69, 0xa6, 0x92, 0x3e, 0xda, 0xb7, 0x12, 0x3f, 
	0xfc, 0x63, 0x4f, 0xbd, 0xc4, 0xea, 0xe3, 0x3e, 0x77, 0xcc, 0x1f, 0x3d, 
	0xd3, 0xae, 0xc5, 0xbd, 0xf3, 0xe8, 0x3d, 0xbe, 0x66, 0xf5, 0xc9, 0xbd, 
	0x8f, 0x7e, 0x27, 0x3d, 0x9e, 0x64, 0x68, 0xbe, 0x68, 0xff, 0x15, 0x3e, 
	0x32, 0xd2, 0x14, 0xbe, 0x01, 0xa0, 0x82, 0xbe, 0x90, 0x5d, 0xb2, 0x3e, 
	0x9b, 0xc0, 0xc2, 0xbd, 0x3c, 0xfb, 0x55, 0x3e, 0x86, 0x08, 0x7d, 0xbd, 
	0x4e, 0x52, 0x3a, 0x3e, 0x0c, 0x67, 0xcb, 0x3e, 0x2e, 0xea, 0x6b, 0x3e, 
	0x3d, 0x4d, 0x9d, 0x3e, 0x6d, 0x00, 0x10, 0x3f, 0xb4, 0xf0, 0x01, 0x3f, 
	0x8b, 0xe2, 0x1a, 0x3e, 0x6b, 0x45, 0x5f, 0x3e, 0xb3, 0x5b, 0xf4, 0x3e, 
	0x28, 0x9e, 0x00, 0xbe, 0x21, 0x5e, 0x31, 0x3f, 0x4b, 0xeb, 0xd8, 0x3d, 
	0x3f, 0x19, 0x29, 0xbd, 0xb8, 0xbf, 0xa8, 0x3d, 0x50, 0xfe, 0x37, 0xbe, 
	0xa6, 0x8c, 0xc4, 0x3d, 0x53, 0x95, 0x1e, 0x3e, 0xb2, 0x9d, 0xa7, 0x3c, 
	0xe8, 0x47, 0x97, 0x3e, 0x1a, 0xd4, 0x09, 0x3f, 0x5b, 0x20, 0x7e, 0x3e, 
	0xd6, 0x97, 0xcb, 0x3e, 0x1f, 0xdb, 0x99, 0x3e, 0xa0, 0x0a, 0x02, 0x3f, 
	0x7f, 0x69, 0x19, 0x3f, 0xde, 0x00, 0x22, 0x3e, 0x52, 0xd0, 0xed, 0x3e, 
	0xa0, 0x17, 0xbd, 0xbe, 0x2b, 0x81, 0xcf, 0x3e, 0x00, 0xf5, 0x53, 0xbe, 
	0x50, 0xc0, 0x9e, 0xbe, 0xd2, 0x1c, 0xaa, 0xbe, 0x3d, 0x67, 0xbb, 0xbe, 
	0x1a, 0x98, 0xb0, 0x3d, 0x00, 0x11, 0x8e, 0x3e, 0xf0, 0x64, 0xe0, 0x3d, 
	0x4f, 0xad, 0xe8, 0x3e, 0x8d, 0x41, 0x3f, 0x3e, 0xf8, 0x06, 0x5d, 0xbe, 
	0x7c, 0x3b, 0x45, 0x3e, 0x4e, 0x4b, 0x29, 0x3c, 0x1e, 0x77, 0xac, 0x3e, 
	0x94, 0xa6, 0xc8, 0x3e, 0x13, 0xec, 0xf7, 0x3d, 0xda, 0x5d, 0x10, 0x3e, 
	0xd9, 0xd7, 0xe2, 0x3d, 0xa6, 0xfd, 0x8a, 0xbe, 0x7e, 0x96, 0x9d, 0xbe, 
	0x16, 0xbc, 0xa2, 0x3e, 0x40, 0xfe, 0xa1, 0xbe, 0x56, 0x23, 0x5d, 0xbe, 
	0x55, 0xc6, 0x57, 0xbe, 0xf7, 0xf8, 0xd2, 0xbe, 0x0b, 0x09, 0xc5, 0xbc, 
	0x91, 0x4d, 0x97, 0x3e, 0x80, 0x94, 0xd9, 0x3d, 0x64, 0xba, 0x68, 0xbe, 
	0x61, 0xb2, 0x42, 0xbe, 0xdd, 0xa4, 0xb1, 0xbe, 0x13, 0x1c, 0xd9, 0x3d, 
	0xa1, 0x79, 0x4d, 0xbd, 0x58, 0xd1, 0xab, 0xbe, 0x10, 0xb2, 0xb0, 0xbd, 
	0x3e, 0xfc, 0xbf, 0xbd, 0x54, 0x03, 0x58, 0xbe, 0x06, 0x2d, 0x0e, 0xbd, 
	0x7b, 0x18, 0x0d, 0xbe, 0x53, 0x2e, 0xc3, 0x3d, 0x39, 0xab, 0xc1, 0xbe, 
	0x80, 0x11, 0x48, 0xbd, 0x5c, 0xbe, 0x96, 0x3e, 0x7d, 0x47, 0x2e, 0x3e, 
	0x20, 0x1c, 0x85, 0x3d, 0x5f, 0xb7, 0xba, 0x3e, 0x39, 0x7f, 0x3b, 0xbe, 
	0x4b, 0xdb, 0x1b, 0x3e, 0xeb, 0xce, 0x4e, 0x3f, 0xa3, 0xfb, 0x81, 0x3e, 
	0xdb, 0xfd, 0xb8, 0x3d, 0x59, 0x8a, 0xf8, 0xbd, 0xe2, 0x06, 0xf6, 0x3e, 
	0x81, 0x8d, 0xe8, 0x3e, 0x72, 0x82, 0x1d, 0x3f, 0x01, 0xb2, 0x02, 0xbe, 
	0xc8, 0x92, 0x02, 0x3f, 0x12, 0xfb, 0x1b, 0xbd, 0xbe, 0xbb, 0xf8, 0x3d, 
	0xb0, 0x64, 0xba, 0xbd, 0x22, 0xf1, 0x94, 0xbd, 0x9d, 0x63, 0xdc, 0x3e, 
	0x38, 0x91, 0xd3, 0x3e, 0xcb, 0xb4, 0x22, 0x3e, 0xff, 0x58, 0x28, 0xbf, 
	0xba, 0x3f, 0x6b, 0x3e, 0xb4, 0x18, 0x85, 0x3e, 0x6b, 0xc9, 0xb2, 0x3e, 
	0x7f, 0x1d, 0xc0, 0x3e, 0xdf, 0x44, 0x17, 0x3f, 0xc0, 0x9f, 0x1f, 0xbe, 
	0x2f, 0xf7, 0x3c, 0x3e, 0x9b, 0x1c, 0xa1, 0xbe, 0xa8, 0x8c, 0xca, 0x3d, 
	0x36, 0x1d, 0x02, 0x3e, 0x0c, 0xd6, 0x2b, 0xbe, 0x9d, 0xcb, 0x8a, 0x3e, 
	0x18, 0x3e, 0xd7, 0xbc, 0xfb, 0xf9, 0xde, 0x3d, 0xda, 0x4b, 0x88, 0xbe, 
	0x3a, 0x50, 0x63, 0x3e, 0xb2, 0xfb, 0x77, 0xbe, 0x56, 0x7f, 0xc5, 0x3d, 
	0x0d, 0xb3, 0xbc, 0x3d, 0x41, 0x2a, 0xd4, 0xbd, 0xf6, 0xf0, 0x75, 0x3e, 
	0x57, 0xdd, 0x01, 0x3e, 0x30, 0xd2, 0xa3, 0x3d, 0x8e, 0xb1, 0x13, 0x3e, 
	0xce, 0xb6, 0x75, 0x3e, 0xac, 0x38, 0x68, 0xbc, 0x2f, 0x8c, 0x9a, 0x3e, 
	0xcd, 0xd7, 0xef, 0xbc, 0x1f, 0x21, 0x1c, 0x3e, 0x7f, 0xfd, 0xf7, 0x3e, 
	0x6d, 0xa0, 0xcc, 0xbc, 0xed, 0x62, 0x86, 0x3e, 0xeb, 0xb9, 0xd5, 0xbc, 
	0x97, 0xc9, 0x6f, 0xbd, 0x7d, 0xcb, 0x6b, 0xbd, 0xb7, 0xbe, 0x9e, 0x3e, 
	0x56, 0xfb, 0xe3, 0xba, 0xb3, 0x4b, 0x87, 0x3c, 0x05, 0x2d, 0x0d, 0xbe, 
	0x0b, 0x6a, 0x16, 0x3f, 0xa4, 0xb4, 0x82, 0xbe, 0xb0, 0xf3, 0x12, 0x3e, 
	0x42, 0x31, 0x3b, 0xbe, 0x2b, 0x6b, 0x6a, 0xbd, 0xfb, 0x7f, 0x98, 0x3e, 
	0x2b, 0x7f, 0x4b, 0xbd, 0xc0, 0xc3, 0x37, 0xbd, 0xc6, 0xe0, 0x18, 0x3f, 
	0xd7, 0xaf, 0xfd, 0x3d, 0x50, 0xbe, 0x2e, 0xbe, 0x03, 0xef, 0xc9, 0xbd, 
	0x5d, 0xeb, 0xe3, 0x3c, 0x57, 0x93, 0x80, 0x3e, 0xee, 0x20, 0x25, 0x3f, 
	0x12, 0x7d, 0x35, 0x3e, 0x63, 0x1a, 0xeb, 0x3e, 0x77, 0x3c, 0x8c, 0x3e, 
	0x9e, 0x79, 0xe4, 0x3e, 0x4d, 0xe7, 0xdd, 0x3c, 0x72, 0xf5, 0x35, 0x3f, 
	0x35, 0x8b, 0x11, 0x3e, 0xd2, 0x2e, 0x01, 0x3f, 0x18, 0x53, 0x0a, 0xbe, 
	0xa9, 0xd1, 0x69, 0x3f, 0x90, 0x97, 0xd2, 0x3d, 0x79, 0xa3, 0x3b, 0xbd, 
	0x1d, 0x8c, 0xb7, 0x3c, 0xfa, 0x3d, 0x24, 0xbd, 0xb2, 0xfc, 0x82, 0xbe, 
	0x2b, 0xa1, 0xbb, 0x3e, 0x85, 0xaf, 0x8b, 0x3b, 0x6f, 0x8c, 0x18, 0x3f, 
	0x25, 0xa7, 0xcf, 0xbc, 0x8b, 0x1f, 0x79, 0xbe, 0x92, 0x09, 0x42, 0xbe, 
	0x3a, 0x12, 0xd4, 0x3b, 0xea, 0xa0, 0xf0, 0x3d, 0xb1, 0x53, 0x03, 0x3f, 
	0xd9, 0x9e, 0x73, 0x3d, 0x63, 0xfe, 0x91, 0x3e, 0x46, 0x4b, 0x00, 0x3c, 
	0x55, 0x41, 0x91, 0xbd, 0x99, 0x2e, 0x19, 0xbe, 0xc7, 0xdf, 0x2d, 0x3d, 
	0xd3, 0x14, 0x80, 0xbe, 0xc0, 0x92, 0xc4, 0xbe, 0xb5, 0x7c, 0x86, 0xbe, 
	0x92, 0xad, 0x2a, 0xbd, 0x56, 0xee, 0x2e, 0xbe, 0xfe, 0xe7, 0xc1, 0x3e, 
	0xab, 0x76, 0xc2, 0xbe, 0xff, 0x7b, 0x00, 0x3e, 0x92, 0x82, 0x02, 0x3d, 
	0x11, 0xcb, 0x26, 0xbe, 0x98, 0xd8, 0x69, 0xbd, 0xf0, 0xa0, 0x46, 0x3e, 
	0x3b, 0x9c, 0xec, 0xbd, 0x21, 0xea, 0xb4, 0x3d, 0x19, 0x10, 0x46, 0xbe, 
	0x6e, 0x00, 0x76, 0xbe, 0xc2, 0x0e, 0x06, 0xbe, 0x98, 0xac, 0x7a, 0xbe, 
	0xfe, 0xde, 0x57, 0x3e, 0xb0, 0x59, 0xb9, 0xbd, 0x2d, 0x68, 0x7f, 0x3e, 
	0xe7, 0xac, 0x30, 0x3f, 0x9a, 0xa7, 0x97, 0x3e, 0x87, 0xe2, 0xcc, 0x3d, 
	0x49, 0xca, 0x88, 0x3e, 0x3d, 0x3c, 0xd2, 0xbd, 0x57, 0xc9, 0x6b, 0x3e, 
	0xa7, 0xa9, 0x8d, 0xbd, 0x74, 0xa2, 0xda, 0x3d, 0x4e, 0xee, 0xc0, 0xbc, 
	0x9e, 0xe7, 0xb2, 0x3d, 0x37, 0xfe, 0x50, 0x3e, 0x17, 0x6d, 0xa9, 0xbe, 
	0xa4, 0x46, 0x37, 0x3c, 0xff, 0x7e, 0xac, 0x3e, 0x79, 0x27, 0x3e, 0xbe, 
	0x8e, 0xb2, 0x4a, 0x3e, 0xf1, 0x6b, 0x0b, 0x3f, 0x50, 0x2e, 0xe4, 0x3e, 
	0xa8, 0x6e, 0x0e, 0x3b, 0xed, 0x84, 0x20, 0x3f, 0x30, 0x06, 0x80, 0x3d, 
	0x1e, 0xc5, 0x0b, 0xbe, 0xe8, 0x2d, 0xbc, 0xbc, 0x36, 0xdf, 0x8f, 0x3d, 
	0x2b, 0xc7, 0xce, 0xbd, 0x1a, 0x09, 0xed, 0x3d, 0xcb, 0x7e, 0xb9, 0xbd, 
	0x7b, 0x3b, 0x91, 0xbd, 0x1b, 0xec, 0xca, 0xbd, 0x23, 0x62, 0x21, 0xbe, 
	0xc0, 0x18, 0x54, 0x3d, 0x96, 0xfe, 0xe4, 0xbd, 0x0c, 0x5d, 0x41, 0xbd, 
	0x96, 0xa1, 0x04, 0xbe, 0x6c, 0xd2, 0x78, 0x3d, 0xb3, 0x85, 0x13, 0xbe, 
	0xb4, 0x05, 0x20, 0x3d, 0x76, 0x0b, 0xa3, 0x3d, 0x58, 0x12, 0x8a, 0xbc, 
	0x96, 0x24, 0x97, 0xbd, 0xd0, 0xb7, 0x95, 0x3d, 0x50, 0x83, 0x1d, 0x3c, 
	0xd0, 0x8f, 0x16, 0xbc, 0x46, 0xd4, 0x19, 0xbe, 0xf0, 0x76, 0xbf, 0xbd, 
	0xa0, 0xf4, 0xe4, 0xbb, 0x00, 0xed, 0x5b, 0xbc, 0xbe, 0x24, 0x0b, 0xbe, 
	0xc6, 0xf5, 0x24, 0xbe, 0x6c, 0x63, 0x76, 0xbd, 0xd4, 0xd6, 0x0b, 0xbd, 
	0x28, 0x81, 0x1d, 0xbe, 0x30, 0x19, 0x61, 0xbc, 0x80, 0x8a, 0x6b, 0x3c, 
	0xc0, 0xb4, 0xf2, 0x3c, 0x30, 0x72, 0x07, 0x3c, 0x02, 0x0f, 0xec, 0x3d, 
	0x06, 0x23, 0xaf, 0xbd, 0x2a, 0x00, 0xdc, 0x3d, 0x03, 0x59, 0x24, 0xbe, 
	0xb0, 0x80, 0xc7, 0xbd, 0x3a, 0xf9, 0xad, 0x3d, 0x66, 0xd4, 0xda, 0xbd, 
	0xd0, 0x79, 0x97, 0xbd, 0xd0, 0x37, 0x9e, 0xbd, 0xd8, 0xef, 0xe2, 0x3c, 
	0x40, 0xb7, 0x03, 0x3d, 0xb0, 0x5a, 0x12, 0xbe, 0x42, 0x74, 0xe1, 0x3d, 
	0xfa, 0x83, 0x8b, 0x3d, 0xd9, 0xb0, 0x22, 0x3e, 0x80, 0xf5, 0x38, 0x3c, 
	0xa0, 0xf8, 0x01, 0xbe, 0xcc, 0x94, 0x4e, 0xbd, 0x70, 0x96, 0xe4, 0xbd, 
	0xcb, 0x8b, 0x8a, 0xbd, 0x86, 0xdb, 0xc4, 0xbd, 0x4c, 0xee, 0x02, 0x3d, 
	0xf3, 0xd8, 0x15, 0xbe, 0x1b, 0x01, 0x88, 0xbd, 0x8c, 0xdb, 0x4d, 0xbd, 
	0xc0, 0xe9, 0x0c, 0xbe, 0xee, 0x57, 0x01, 0xbe, 0xac, 0x4d, 0x6a, 0xbd, 
	0xae, 0x97, 0x12, 0xbe, 0x50, 0x13, 0x11, 0x3c, 0x40, 0xeb, 0x19, 0x3b, 
	0x00, 0x50, 0xd7, 0x3b, 0x10, 0xbf, 0xb5, 0xbd, 0xc0, 0x3e, 0xac, 0x3c, 
	0x80, 0x44, 0x22, 0x3d, 0x06, 0x47, 0x05, 0xbe, 0x10, 0xe8, 0xbc, 0xbd, 
	0xbd, 0xca, 0x97, 0x3e, 0x20, 0x19, 0x83, 0x3e, 0xba, 0x58, 0x08, 0x3e, 
	0x82, 0x86, 0x28, 0xbe, 0x36, 0x7f, 0x80, 0x3e, 0x06, 0x64, 0x0e, 0x3e, 
	0xdd, 0x7b, 0x4a, 0xbc, 0xb0, 0x11, 0xa5, 0x3c, 0xc5, 0xe1, 0xcc, 0x3d, 
	0x02, 0x8d, 0x3f, 0xbe, 0xbb, 0x5e, 0x2a, 0x3e, 0xc9, 0xe4, 0xb3, 0x3d, 
	0x6f, 0xe9, 0x40, 0x3d, 0xb9, 0x34, 0x13, 0xbb, 0xce, 0x73, 0x41, 0xbe, 
	0xd3, 0x98, 0x63, 0xbe, 0xed, 0xe2, 0x9d, 0xbd, 0x15, 0xac, 0x7d, 0x3e, 
	0x7d, 0x45, 0xd4, 0x3d, 0x4d, 0x7f, 0x27, 0xbe, 0x87, 0x6e, 0xd0, 0xbd, 
	0x27, 0xc3, 0x51, 0x3e, 0xe0, 0x64, 0xb7, 0xbe, 0xbc, 0x95, 0x81, 0xbd, 
	0x11, 0xa9, 0x56, 0xbe, 0x9a, 0xe9, 0x01, 0x3f, 0x75, 0x83, 0x13, 0xbd, 
	0xa6, 0x12, 0x5c, 0xbe, 0xf0, 0x78, 0x36, 0xbe, 0xcd, 0xb2, 0xa4, 0xbe, 
	0xa0, 0x78, 0x6e, 0x3d, 0x07, 0x4e, 0xca, 0x3e, 0xe6, 0x10, 0x64, 0x3e, 
	0x33, 0xb7, 0x05, 0x3f, 0x77, 0x3c, 0x11, 0x3e, 0x7e, 0x5d, 0x9e, 0x3d, 
	0xfb, 0x27, 0xc1, 0x3d, 0x9b, 0x06, 0x38, 0xbe, 0x8d, 0xfe, 0x2e, 0xbe, 
	0x11, 0x65, 0xc1, 0x3e, 0x25, 0x69, 0xa0, 0xbd, 0x6c, 0x2d, 0xb7, 0xbe, 
	0x89, 0x63, 0x08, 0x3e, 0x32, 0xfb, 0x4d, 0xbe, 0x16, 0xd4, 0x40, 0xbc, 
	0x07, 0xde, 0x4f, 0x3e, 0x32, 0xb1, 0x50, 0xbe, 0xda, 0x63, 0x95, 0xbe, 
	0x25, 0x15, 0x4f, 0x3e, 0xc4, 0x76, 0x01, 0xbd, 0x6d, 0x86, 0xaa, 0xbe, 
	0xf8, 0xed, 0x41, 0xbe, 0xe1, 0x5a, 0x1e, 0x3e, 0xf3, 0x71, 0x02, 0xbe, 
	0xd8, 0x54, 0xf6, 0xbd, 0x92, 0xbc, 0x57, 0xbe, 0xe2, 0xac, 0xab, 0xbd, 
	0x5e, 0x7c, 0x88, 0xbe, 0x03, 0x0e, 0x49, 0xbc, 0xcc, 0xa0, 0x4b, 0x3e, 
	0xc1, 0x54, 0xb6, 0x3e, 0xaa, 0x10, 0xc8, 0xbe, 0x3b, 0x31, 0xe1, 0xbc, 
	0x3c, 0xb9, 0x0d, 0xbf, 0x2b, 0xba, 0x09, 0xbd, 0x43, 0x81, 0x08, 0xbf, 
	0x3e, 0x5d, 0x07, 0xbe, 0xd0, 0x79, 0x51, 0x3d, 0x85, 0x90, 0xf2, 0xbc, 
	0x66, 0x21, 0x02, 0xbe, 0x02, 0x4e, 0x85, 0xbe, 0x70, 0x1d, 0x0c, 0xbf, 
	0x7e, 0x4d, 0x87, 0x3e, 0x9f, 0x51, 0x25, 0xbf, 0x3a, 0x8f, 0xc6, 0xbe, 
	0x0a, 0x6b, 0xb3, 0xbd, 0x09, 0x47, 0xa2, 0x3e, 0x07, 0x0b, 0x6a, 0xbf, 
	0x8e, 0xe7, 0x13, 0xbe, 0x24, 0x72, 0xea, 0xbe, 0xce, 0xb3, 0x17, 0x3d, 
	0xa1, 0xb1, 0xc4, 0xbe, 0x68, 0x87, 0xf4, 0x3d, 0xe3, 0x25, 0x0d, 0xbe, 
	0x10, 0xaa, 0xb8, 0x3d, 0xc1, 0x16, 0xa4, 0x3e, 0x98, 0x9f, 0xa7, 0xbe, 
	0xd1, 0x16, 0x3f, 0xbd, 0xfe, 0x4f, 0xcd, 0x3d, 0xd1, 0x53, 0x1b, 0x3f, 
	0x2d, 0x24, 0x44, 0xbe, 0xfc, 0x16, 0x98, 0xbd, 0xc4, 0x1e, 0xc2, 0xbd, 
	0xa6, 0xe0, 0xb3, 0xbe, 0xc4, 0x7f, 0x45, 0x3c, 0xaa, 0x8a, 0xd9, 0x3e, 
	0x79, 0x1a, 0xd6, 0x3e, 0x95, 0x02, 0x3c, 0xbd, 0x9a, 0xc7, 0x34, 0x3e, 
	0xda, 0xbb, 0x0d, 0x3f, 0x76, 0x89, 0xbb, 0x3e, 0xe7, 0x0d, 0x68, 0x3e, 
	0x6e, 0x1c, 0x23, 0x3f, 0x4e, 0x88, 0xc1, 0x3e, 0x8c, 0x7d, 0xc9, 0x3e, 
	0x2c, 0x3d, 0x18, 0xbd, 0x6e, 0xa3, 0xc5, 0x3e, 0x37, 0xcf, 0xb3, 0xbe, 
	0x04, 0x1d, 0x81, 0x3e, 0x3b, 0xb1, 0x10, 0x3f, 0x15, 0xb4, 0x23, 0xbe, 
	0x2a, 0xe1, 0xaa, 0x3d, 0xfb, 0x8c, 0x0b, 0x3e, 0x71, 0x7c, 0x99, 0xbe, 
	0x95, 0x66, 0xfc, 0xbd, 0x69, 0x0d, 0xa3, 0x3e, 0x44, 0xbc, 0x63, 0x3e, 
	0xa4, 0xb9, 0x6c, 0x3d, 0xd9, 0x92, 0x64, 0x3e, 0x93, 0x4e, 0x9f, 0xbe, 
	0x03, 0x12, 0x24, 0x3e, 0xb6, 0x2c, 0xaa, 0x3e, 0xfe, 0x5d, 0x62, 0xbd, 
	0xb4, 0xc3, 0xa4, 0xbd, 0xb2, 0x0a, 0x8d, 0xbe, 0xb5, 0x3c, 0x27, 0xbe, 
	0x07, 0x8c, 0x11, 0x3e, 0x23, 0x9d, 0x8f, 0xbe, 0x31, 0xe4, 0x06, 0x3e, 
	0x3a, 0x18, 0xa6, 0xbc, 0x4a, 0x65, 0x85, 0x3e, 0x49, 0x68, 0x87, 0x3e, 
	0x7e, 0xa4, 0x27, 0xbd, 0xef, 0xa5, 0xb9, 0x3e, 0xd3, 0xdc, 0x0f, 0x3e, 
	0x30, 0x6e, 0x70, 0x3e, 0xb2, 0x02, 0x92, 0xbc, 0x67, 0xac, 0x23, 0x3f, 
	0xf9, 0xcc, 0x36, 0x3e, 0x2b, 0x04, 0x37, 0xbe, 0xc2, 0xfd, 0xca, 0xbe, 
	0x05, 0xb8, 0x3f, 0x3e, 0x29, 0x2d, 0x33, 0xbe, 0xca, 0xa7, 0x4b, 0x3e, 
	0xeb, 0x38, 0xb9, 0x3c, 0x5e, 0x34, 0xa9, 0xbd, 0xf4, 0x62, 0xfd, 0xbd, 
	0x18, 0x8d, 0xcd, 0x3c, 0xa2, 0xc3, 0xcf, 0x3d, 0x70, 0x6f, 0x8a, 0x3d, 
	0x64, 0xa0, 0x84, 0xbb, 0x7d, 0x5f, 0xa9, 0x3d, 0x0e, 0xa3, 0x2b, 0xbe, 
	0xf6, 0x00, 0x9c, 0xbd, 0xd5, 0xa5, 0x11, 0xbe, 0xd5, 0xd8, 0x14, 0xbc, 
	0x0c, 0xbc, 0x76, 0xbc, 0x66, 0x88, 0x9d, 0xbd, 0xe1, 0x49, 0xeb, 0x3d, 
	0x29, 0x4d, 0xa5, 0x3a, 0x3d, 0xe4, 0x1f, 0xbe, 0xee, 0xe3, 0x1a, 0xbe, 
	0xee, 0x00, 0xc9, 0x3d, 0x93, 0xbc, 0x92, 0xbd, 0x1a, 0x76, 0x1c, 0xbe, 
	0xf7, 0x94, 0x90, 0x3d, 0xe1, 0x99, 0xf9, 0x3d, 0x5a, 0x09, 0x42, 0xbc, 
	0x81, 0x27, 0x19, 0x3c, 0xa6, 0x70, 0xb1, 0xbd, 0x12, 0xa5, 0x27, 0xbe, 
	0x56, 0xc5, 0x03, 0xbe, 0x15, 0x8c, 0xce, 0xbc, 0xe6, 0x2c, 0x26, 0xbe, 
	0xf6, 0xab, 0x30, 0xbd, 0x24, 0x29, 0xd3, 0x3d, 0xe7, 0xb0, 0x11, 0x3e, 
	0xc0, 0xcf, 0x5a, 0xbd, 0x59, 0x90, 0x98, 0xba, 0x05, 0x3b, 0x17, 0xbd, 
	0x6b, 0xe0, 0x97, 0xbd, 0x7d, 0xfa, 0xc1, 0xbd, 0xa9, 0x8d, 0x55, 0xbd, 
	0x89, 0x86, 0x0c, 0xbc, 0xa3, 0x41, 0x70, 0xbc, 0xf6, 0xc8, 0xd5, 0x3d, 
	0x20, 0x1a, 0x72, 0x3b, 0xbd, 0x8d, 0x95, 0x3d, 0x06, 0x7a, 0xfc, 0xbd, 
	0x5a, 0x5e, 0xa9, 0x3c, 0x9e, 0x46, 0xf2, 0x3d, 0x4f, 0xf4, 0x1d, 0x3d, 
	0x3b, 0xa8, 0xb8, 0x3d, 0x48, 0x65, 0x53, 0x3d, 0xe5, 0xea, 0xb2, 0xbd, 
	0xa0, 0x82, 0x0f, 0xbe, 0x25, 0xd7, 0x9c, 0x3b, 0xec, 0xdb, 0x34, 0x3d, 
	0x31, 0x00, 0x01, 0x3e, 0xc4, 0xab, 0x00, 0xbe, 0x1e, 0x1f, 0xe1, 0xbd, 
	0x46, 0xb1, 0x89, 0xbd, 0xc5, 0x46, 0x01, 0x3e, 0x1f, 0x64, 0x80, 0x3d, 
	0xa6, 0xda, 0x92, 0x3d, 0x80, 0xfe, 0xab, 0xbd, 0x22, 0xde, 0xce, 0x3d, 
	0xc5, 0x39, 0x1e, 0xbd, 0x82, 0xb0, 0xdd, 0xbc, 0x2b, 0x30, 0xf8, 0x3d, 
	0x33, 0x8e, 0x61, 0x3d, 0x00, 0xd4, 0x2b, 0xbd, 0xe1, 0x9c, 0x34, 0xbd, 
	0x9a, 0xc7, 0x82, 0x3b, 0x64, 0xb6, 0xab, 0x3b, 0x07, 0xd7, 0xb1, 0xbd, 
	0x86, 0xfe, 0xff, 0xff, 0x04, 0x00, 0x00, 0x00, 0x20, 0x01, 0x00, 0x00, 
	0x74, 0x50, 0x02, 0x3f, 0xd5, 0xe0, 0x33, 0x3f, 0x41, 0x27, 0x81, 0x3e, 
	0x8d, 0x1b, 0xf0, 0x3e, 0x18, 0x8d, 0x10, 0x3f, 0x9f, 0xd5, 0x66, 0x3e, 
	0x16, 0x35, 0xab, 0x3d, 0xd3, 0xe2, 0x17, 0x3f, 0xf7, 0xc7, 0x0d, 0x3f, 
	0xfa, 0x19, 0x66, 0x3f, 0x81, 0xd9, 0x8b, 0x3f, 0x46, 0xaa, 0x3b, 0x3f, 
	0x88, 0xe1, 0xa0, 0xbc, 0xd1, 0x22, 0xb8, 0xbe, 0xd4, 0x05, 0xb8, 0xbe, 
	0x24, 0x2d, 0x44, 0xbf, 0x44, 0x49, 0x8c, 0xbf, 0x2b, 0x6f, 0xb7, 0xbe, 
	0x96, 0x33, 0x5a, 0x3f, 0xeb, 0x2e, 0x0b, 0x3f, 0x67, 0x12, 0xf8, 0x3d, 
	0x45, 0xcd, 0x32, 0x3f, 0xe9, 0x4b, 0x51, 0x3f, 0xdd, 0x13, 0xd3, 0xbe, 
	0xf9, 0xf3, 0x45, 0x3d, 0x56, 0x3b, 0xc7, 0x3e, 0x0b, 0x99, 0xf1, 0x3d, 
	0x87, 0x79, 0x1b, 0xbe, 0x4a, 0x97, 0x85, 0x3e, 0x45, 0xd3, 0x13, 0xbe, 
	0x26, 0x36, 0x1d, 0xbf, 0x3f, 0x03, 0x80, 0x3f, 0xa3, 0x54, 0xfb, 0xbe, 
	0x0e, 0x0e, 0x2d, 0x3f, 0xf9, 0x18, 0x4a, 0x3f, 0xf7, 0x45, 0xaf, 0xbe, 
	0x26, 0x36, 0xaa, 0x3d, 0x4b, 0xe3, 0xe5, 0x3e, 0xfe, 0x75, 0xce, 0x3e, 
	0xf4, 0xf4, 0x27, 0x3f, 0xef, 0x6e, 0x76, 0x3f, 0x6a, 0x86, 0xa6, 0x3e, 
	0x7b, 0x1d, 0x66, 0x3e, 0xfa, 0x3f, 0x82, 0x3f, 0xf8, 0x46, 0x48, 0x3f, 
	0x3a, 0xbb, 0x15, 0x3f, 0x8f, 0xe5, 0xd8, 0x3e, 0x19, 0x20, 0x7a, 0x3e, 
	0x15, 0xeb, 0x93, 0x3f, 0x88, 0x32, 0x10, 0xbd, 0x5a, 0xe9, 0x18, 0xbe, 
	0xaa, 0xc4, 0x24, 0x3f, 0x29, 0x04, 0xaa, 0xbe, 0x22, 0x8c, 0xcf, 0xbe, 
	0x67, 0x06, 0xdd, 0x3d, 0xbd, 0x66, 0x06, 0x3e, 0x72, 0xec, 0x28, 0x3f, 
	0x7f, 0x81, 0x75, 0xbf, 0x5f, 0xcd, 0x1d, 0x3f, 0xbc, 0xa6, 0x38, 0x3f, 
	0xad, 0xcf, 0x07, 0xbe, 0xe7, 0xff, 0xe7, 0x3e, 0x66, 0x1f, 0x07, 0xbe, 
	0x1c, 0x32, 0xfd, 0x3e, 0x47, 0x95, 0x02, 0x3f, 0xf0, 0x7d, 0x02, 0x3f, 
	0xac, 0x4a, 0x2a, 0x3e, 0x97, 0x35, 0x14, 0x3f, 0x33, 0xbc, 0x59, 0x3f, 
	0x6c, 0x92, 0xf1, 0xbe, 0x9a, 0x38, 0x95, 0xbf, 0xbe, 0x8a, 0xf7, 0xbe, 
	0xb2, 0xff, 0xff, 0xff, 0x04, 0x00, 0x00, 0x00, 0x40, 0x00, 0x00, 0x00, 
	0x86, 0xf0, 0x4a, 0x3c, 0xcf, 0x48, 0x60, 0x3d, 0x00, 0x00, 0x00, 0x00, 
	0x92, 0x12, 0xcd, 0x3d, 0xd9, 0x8d, 0xb5, 0xbc, 0x86, 0xa3, 0x27, 0x3d, 
	0x00, 0x00, 0x00, 0x00, 0xc7, 0xf0, 0x3c, 0x3d, 0x85, 0x07, 0x2f, 0x3c, 
	0x17, 0x88, 0xfa, 0x3d, 0xf0, 0x81, 0xe4, 0x3d, 0x4f, 0x37, 0x7d, 0x3d, 
	0x00, 0x00, 0x00, 0x00, 0x14, 0x5d, 0xa1, 0x3c, 0x43, 0x29, 0xeb, 0xbc, 
	0x98, 0x5f, 0xc7, 0xbb, 0x00, 0x00, 0x06, 0x00, 0x08, 0x00, 0x04, 0x00, 
	0x06, 0x00, 0x00, 0x00, 0x04, 0x00, 0x00, 0x00, 0x20, 0x00, 0x00, 0x00, 
	0x18, 0x8f, 0x06, 0x3c, 0x7c, 0xdd, 0xf7, 0x3e, 0xb9, 0x67, 0xb0, 0x3c, 
	0xdb, 0xc4, 0x5e, 0x3d, 0xce, 0xfe, 0x02, 0xbd, 0x84, 0xed, 0x23, 0x3d, 
	0xe5, 0xbc, 0x09, 0x3e, 0x1f, 0x30, 0x0f, 0x3e, 0xa4, 0xf8, 0xff, 0xff, 
	0xa8, 0xf8, 0xff, 0xff, 0x0f, 0x00, 0x00, 0x00, 0x4d, 0x4c, 0x49, 0x52, 
	0x20, 0x43, 0x6f, 0x6e, 0x76, 0x65, 0x72, 0x74, 0x65, 0x64, 0x2e, 0x00, 
	0x01, 0x00, 0x00, 0x00, 0x14, 0x00, 0x00, 0x00, 0x00, 0x00, 0x0e, 0x00, 
	0x18, 0x00, 0x14, 0x00, 0x10, 0x00, 0x0c, 0x00, 0x08, 0x00, 0x04, 0x00, 
	0x0e, 0x00, 0x00, 0x00, 0x14, 0x00, 0x00, 0x00, 0x1c, 0x00, 0x00, 0x00, 
	0x90, 0x01, 0x00, 0x00, 0x94, 0x01, 0x00, 0x00, 0x98, 0x01, 0x00, 0x00, 
	0x04, 0x00, 0x00, 0x00, 0x6d, 0x61, 0x69, 0x6e, 0x00, 0x00, 0x00, 0x00, 
	0x05, 0x00, 0x00, 0x00, 0x28, 0x01, 0x00, 0x00, 0xc4, 0x00, 0x00, 0x00, 
	0x70, 0x00, 0x00, 0x00, 0x48, 0x00, 0x00, 0x00, 0x04, 0x00, 0x00, 0x00, 
	0x5a, 0xff, 0xff, 0xff, 0x14, 0x00, 0x00, 0x00, 0x00, 0x00, 0x00, 0x08, 
	0x10, 0x00, 0x00, 0x00, 0x14, 0x00, 0x00, 0x00, 0x03, 0x00, 0x00, 0x00, 
	0x2c, 0xf9, 0xff, 0xff, 0x01, 0x00, 0x00, 0x00, 0x0c, 0x00, 0x00, 0x00, 
	0x03, 0x00, 0x00, 0x00, 0x0b, 0x00, 0x00, 0x00, 0x07, 0x00, 0x00, 0x00, 
	0x05, 0x00, 0x00, 0x00, 0x00, 0x00, 0x0a, 0x00, 0x10, 0x00, 0x0c, 0x00, 
	0x08, 0x00, 0x04, 0x00, 0x0a, 0x00, 0x00, 0x00, 0x0c, 0x00, 0x00, 0x00, 
	0x10, 0x00, 0x00, 0x00, 0x02, 0x00, 0x00, 0x00, 0x01, 0x00, 0x00, 0x00, 
	0x0b, 0x00, 0x00, 0x00, 0x02, 0x00, 0x00, 0x00, 0x0a, 0x00, 0x00, 0x00, 
	0x06, 0x00, 0x00, 0x00, 0x5e, 0xff, 0xff, 0xff, 0x10, 0x00, 0x00, 0x00, 
	0x00, 0x00, 0x00, 0x01, 0x1c, 0x00, 0x00, 0x00, 0x20, 0x00, 0x00, 0x00, 
	0x50, 0xff, 0xff, 0xff, 0x00, 0x00, 0x00, 0x01, 0x01, 0x00, 0x00, 0x00, 
	0x01, 0x00, 0x00, 0x00, 0x00, 0x00, 0x00, 0x01, 0x01, 0x00, 0x00, 0x00, 
	0x0a, 0x00, 0x00, 0x00, 0x03, 0x00, 0x00, 0x00, 0x09, 0x00, 0x00, 0x00, 
	0x04, 0x00, 0x00, 0x00, 0x02, 0x00, 0x00, 0x00, 0x00, 0x00, 0x0e, 0x00, 
	0x1a, 0x00, 0x14, 0x00, 0x10, 0x00, 0x0c, 0x00, 0x0b, 0x00, 0x04, 0x00, 
	0x0e, 0x00, 0x00, 0x00, 0x24, 0x00, 0x00, 0x00, 0x00, 0x00, 0x00, 0x05, 
	0x34, 0x00, 0x00, 0x00, 0x38, 0x00, 0x00, 0x00, 0x01, 0x00, 0x00, 0x00, 
	0x00, 0x00, 0x0e, 0x00, 0x18, 0x00, 0x17, 0x00, 0x10, 0x00, 0x0c, 0x00, 
	0x08, 0x00, 0x04, 0x00, 0x0e, 0x00, 0x00, 0x00, 0x02, 0x00, 0x00, 0x00, 
	0x02, 0x00, 0x00, 0x00, 0x02, 0x00, 0x00, 0x00, 0x02, 0x00, 0x00, 0x00, 
	0x00, 0x00, 0x00, 0x01, 0x01, 0x00, 0x00, 0x00, 0x09, 0x00, 0x00, 0x00, 
	0x01, 0x00, 0x00, 0x00, 0x08, 0x00, 0x00, 0x00, 0x00, 0x00, 0x0e, 0x00, 
	0x14, 0x00, 0x00, 0x00, 0x10, 0x00, 0x0c, 0x00, 0x0b, 0x00, 0x04, 0x00, 
	0x0e, 0x00, 0x00, 0x00, 0x1c, 0x00, 0x00, 0x00, 0x00, 0x00, 0x00, 0x01, 
	0x28, 0x00, 0x00, 0x00, 0x2c, 0x00, 0x00, 0x00, 0x0c, 0x00, 0x14, 0x00, 
	0x13, 0x00, 0x0c, 0x00, 0x08, 0x00, 0x07, 0x00, 0x0c, 0x00, 0x00, 0x00, 
	0x00, 0x00, 0x00, 0x01, 0x01, 0x00, 0x00, 0x00, 0x01, 0x00, 0x00, 0x00, 
	0x00, 0x00, 0x00, 0x01, 0x01, 0x00, 0x00, 0x00, 0x08, 0x00, 0x00, 0x00, 
	0x03, 0x00, 0x00, 0x00, 0x00, 0x00, 0x00, 0x00, 0x03, 0x00, 0x00, 0x00, 
	0x01, 0x00, 0x00, 0x00, 0x01, 0x00, 0x00, 0x00, 0x0c, 0x00, 0x00, 0x00, 
	0x01, 0x00, 0x00, 0x00, 0x00, 0x00, 0x00, 0x00, 0x0d, 0x00, 0x00, 0x00, 
	0x48, 0x05, 0x00, 0x00, 0xd8, 0x04, 0x00, 0x00, 0x68, 0x04, 0x00, 0x00, 
	0x14, 0x04, 0x00, 0x00, 0xc0, 0x03, 0x00, 0x00, 0x6c, 0x03, 0x00, 0x00, 
	0x20, 0x03, 0x00, 0x00, 0xc0, 0x02, 0x00, 0x00, 0xfc, 0x01, 0x00, 0x00, 
	0x88, 0x01, 0x00, 0x00, 0xbc, 0x00, 0x00, 0x00, 0x60, 0x00, 0x00, 0x00, 
	0x04, 0x00, 0x00, 0x00, 0x02, 0xfb, 0xff, 0xff, 0x00, 0x00, 0x00, 0x01, 
	0x14, 0x00, 0x00, 0x00, 0x1c, 0x00, 0x00, 0x00, 0x1c, 0x00, 0x00, 0x00, 
	0x0d, 0x00, 0x00, 0x00, 0x34, 0x00, 0x00, 0x00, 0x02, 0x00, 0x00, 0x00, 
	0xff, 0xff, 0xff, 0xff, 0x0a, 0x00, 0x00, 0x00, 0xe4, 0xfa, 0xff, 0xff, 
	0x19, 0x00, 0x00, 0x00, 0x53, 0x74, 0x61, 0x74, 0x65, 0x66, 0x75, 0x6c, 
	0x50, 0x61, 0x72, 0x74, 0x69, 0x74, 0x69, 0x6f, 0x6e, 0x65, 0x64, 0x43, 
	0x61, 0x6c, 0x6c, 0x3a, 0x30, 0x00, 0x00, 0x00, 0x02, 0x00, 0x00, 0x00, 
	0x01, 0x00, 0x00, 0x00, 0x0a, 0x00, 0x00, 0x00, 0x5a, 0xfb, 0xff, 0xff, 
	0x00, 0x00, 0x00, 0x01, 0x14, 0x00, 0x00, 0x00, 0x1c, 0x00, 0x00, 0x00, 
	0x1c, 0x00, 0x00, 0x00, 0x0c, 0x00, 0x00, 0x00, 0x34, 0x00, 0x00, 0x00, 
	0x02, 0x00, 0x00, 0x00, 0xff, 0xff, 0xff, 0xff, 0x10, 0x00, 0x00, 0x00, 
	0x3c, 0xfb, 0xff, 0xff, 0x1a, 0x00, 0x00, 0x00, 0x73, 0x65, 0x71, 0x75, 
	0x65, 0x6e, 0x74, 0x69, 0x61, 0x6c, 0x2f, 0x66, 0x6c, 0x61, 0x74, 0x74, 
	0x65, 0x6e, 0x2f, 0x52, 0x65, 0x73, 0x68, 0x61, 0x70, 0x65, 0x00, 0x00, 
	0x02, 0x00, 0x00, 0x00, 0x01, 0x00, 0x00, 0x00, 0x10, 0x00, 0x00, 0x00, 
	0xb2, 0xfb, 0xff, 0xff, 0x00, 0x00, 0x00, 0x01, 0x14, 0x00, 0x00, 0x00, 
	0x24, 0x00, 0x00, 0x00, 0x24, 0x00, 0x00, 0x00, 0x0b, 0x00, 0x00, 0x00, 
	0x9c, 0x00, 0x00, 0x00, 0x04, 0x00, 0x00, 0x00, 0xff, 0xff, 0xff, 0xff, 
	0x01, 0x00, 0x00, 0x00, 0x01, 0x00, 0x00, 0x00, 0x10, 0x00, 0x00, 0x00, 
	0x9c, 0xfb, 0xff, 0xff, 0x7a, 0x00, 0x00, 0x00, 0x73, 0x65, 0x71, 0x75, 
	0x65, 0x6e, 0x74, 0x69, 0x61, 0x6c, 0x2f, 0x63, 0x6f, 0x6e, 0x76, 0x32, 
	0x64, 0x5f, 0x31, 0x2f, 0x52, 0x65, 0x6c, 0x75, 0x3b, 0x73, 0x65, 0x71, 
	0x75, 0x65, 0x6e, 0x74, 0x69, 0x61, 0x6c, 0x2f, 0x63, 0x6f, 0x6e, 0x76, 
	0x32, 0x64, 0x5f, 0x31, 0x2f, 0x42, 0x69, 0x61, 0x73, 0x41, 0x64, 0x64, 
	0x3b, 0x73, 0x65, 0x71, 0x75, 0x65, 0x6e, 0x74, 0x69, 0x61, 0x6c, 0x2f, 
	0x63, 0x6f, 0x6e, 0x76, 0x32, 0x64, 0x5f, 0x31, 0x2f, 0x43, 0x6f, 0x6e, 
	0x76, 0x32, 0x44, 0x3b, 0x73, 0x65, 0x71, 0x75, 0x65, 0x6e, 0x74, 0x69, 
	0x61, 0x6c, 0x2f, 0x63, 0x6f, 0x6e, 0x76, 0x32, 0x64, 0x5f, 0x31, 0x2f, 
	0x42, 0x69, 0x61, 0x73, 0x41, 0x64, 0x64, 0x2f, 0x52, 0x65, 0x61, 0x64, 
	0x56, 0x61, 0x72, 0x69, 0x61, 0x62, 0x6c, 0x65, 0x4f, 0x70, 0x00, 0x00, 
	0x04, 0x00, 0x00, 0x00, 0x01, 0x00, 0x00, 0x00, 0x01, 0x00, 0x00, 0x00, 
	0x01, 0x00, 0x00, 0x00, 0x10, 0x00, 0x00, 0x00, 0x7a, 0xfc, 0xff, 0xff, 
	0x00, 0x00, 0x00, 0x01, 0x14, 0x00, 0x00, 0x00, 0x24, 0x00, 0x00, 0x00, 
	0x24, 0x00, 0x00, 0x00, 0x0a, 0x00, 0x00, 0x00, 0x44, 0x00, 0x00, 0x00, 
	0x04, 0x00, 0x00, 0x00, 0xff, 0xff, 0xff, 0xff, 0x03, 0x00, 0x00, 0x00, 
	0x03, 0x00, 0x00, 0x00, 0x08, 0x00, 0x00, 0x00, 0x64, 0xfc, 0xff, 0xff, 
	0x20, 0x00, 0x00, 0x00, 0x73, 0x65, 0x71, 0x75, 0x65, 0x6e, 0x74, 0x69, 
	0x61, 0x6c, 0x2f, 0x6d, 0x61, 0x78, 0x5f, 0x70, 0x6f, 0x6f, 0x6c, 0x69, 
	0x6e, 0x67, 0x32, 0x64, 0x2f, 0x4d, 0x61, 0x78, 0x50, 0x6f, 0x6f, 0x6c, 
	0x00, 0x00, 0x00, 0x00, 0x04, 0x00, 0x00, 0x00, 0x01, 0x00, 0x00, 0x00, 
	0x03, 0x00, 0x00, 0x00, 0x03, 0x00, 0x00, 0x00, 0x08, 0x00, 0x00, 0x00, 
	0xea, 0xfc, 0xff, 0xff, 0x00, 0x00, 0x00, 0x01, 0x14, 0x00, 0x00, 0x00, 
	0x24, 0x00, 0x00, 0x00, 0x24, 0x00, 0x00, 0x00, 0x09, 0x00, 0x00, 0x00, 
	0x94, 0x00, 0x00, 0x00, 0x04, 0x00, 0x00, 0x00, 0xff, 0xff, 0xff, 0xff, 
	0x06, 0x00, 0x00, 0x00, 0x06, 0x00, 0x00, 0x00, 0x08, 0x00, 0x00, 0x00, 
	0xd4, 0xfc, 0xff, 0xff, 0x72, 0x00, 0x00, 0x00, 0x73, 0x65, 0x71, 0x75, 
	0x65, 0x6e, 0x74, 0x69, 0x61, 0x6c, 0x2f, 0x63, 0x6f, 0x6e, 0x76, 0x32, 
	0x64, 0x2f, 0x52, 0x65, 0x6c, 0x75, 0x3b, 0x73, 0x65, 0x71, 0x75, 0x65, 
	0x6e, 0x74, 0x69, 0x61, 0x6c, 0x2f, 0x63, 0x6f, 0x6e, 0x76, 0x32, 0x64, 
	0x2f, 0x42, 0x69, 0x61, 0x73, 0x41, 0x64, 0x64, 0x3b, 0x73, 0x65, 0x71, 
	0x75, 0x65, 0x6e, 0x74, 0x69, 0x61, 0x6c, 0x2f, 0x63, 0x6f, 0x6e, 0x76, 
	0x32, 0x64, 0x2f, 0x43, 0x6f, 0x6e, 0x76, 0x32, 0x44, 0x3b, 0x73, 0x65, 
	0x71, 0x75, 0x65, 0x6e, 0x74, 0x69, 0x61, 0x6c, 0x2f, 0x63, 0x6f, 0x6e, 
	0x76, 0x32, 0x64, 0x2f, 0x42, 0x69, 0x61, 0x73, 0x41, 0x64, 0x64, 0x2f, 
	0x52, 0x65, 0x61, 0x64, 0x56, 0x61, 0x72, 0x69, 0x61, 0x62, 0x6c, 0x65, 
	0x4f, 0x70, 0x00, 0x00, 0x04, 0x00, 0x00, 0x00, 0x01, 0x00, 0x00, 0x00, 
	0x06, 0x00, 0x00, 0x00, 0x06, 0x00, 0x00, 0x00, 0x08, 0x00, 0x00, 0x00, 
	0x16, 0xfe, 0xff, 0xff, 0x00, 0x00, 0x00, 0x01, 0x10, 0x00, 0x00, 0x00, 
	0x10, 0x00, 0x00, 0x00, 0x08, 0x00, 0x00, 0x00, 0x24, 0x00, 0x00, 0x00, 
	0x7c, 0xfd, 0xff, 0xff, 0x17, 0x00, 0x00, 0x00, 0x73, 0x65, 0x71, 0x75, 
	0x65, 0x6e, 0x74, 0x69, 0x61, 0x6c, 0x2f, 0x64, 0x65, 0x6e, 0x73, 0x65, 
	0x2f, 0x4d, 0x61, 0x74, 0x4d, 0x75, 0x6c, 0x00, 0x02, 0x00, 0x00, 0x00, 
	0x0a, 0x00, 0x00, 0x00, 0x10, 0x00, 0x00, 0x00, 0x00, 0x00, 0x16, 0x00, 
	0x1c, 0x00, 0x18, 0x00, 0x17, 0x00, 0x10, 0x00, 0x0c, 0x00, 0x08, 0x00, 
	0x00, 0x00, 0x00, 0x00, 0x00, 0x00, 0x07, 0x00, 0x16, 0x00, 0x00, 0x00, 
	0x00, 0x00, 0x00, 0x01, 0x14, 0x00, 0x00, 0x00, 0x14, 0x00, 0x00, 0x00, 
	0x07, 0x00, 0x00, 0x00, 0x00, 0x00, 0x00, 0x02, 0x28, 0x00, 0x00, 0x00, 
	0xdc, 0xfd, 0xff, 0xff, 0x18, 0x00, 0x00, 0x00, 0x73, 0x65, 0x71, 0x75, 
	0x65, 0x6e, 0x74, 0x69, 0x61, 0x6c, 0x2f, 0x66, 0x6c, 0x61, 0x74, 0x74, 
	0x65, 0x6e, 0x2f, 0x43, 0x6f, 0x6e, 0x73, 0x74, 0x00, 0x00, 0x00, 0x00, 
	0x01, 0x00, 0x00, 0x00, 0x02, 0x00, 0x00, 0x00, 0xba, 0xfe, 0xff, 0xff, 
	0x00, 0x00, 0x00, 0x01, 0x10, 0x00, 0x00, 0x00, 0x10, 0x00, 0x00, 0x00, 
	0x06, 0x00, 0x00, 0x00, 0x34, 0x00, 0x00, 0x00, 0x20, 0xfe, 0xff, 0xff, 
	0x27, 0x00, 0x00, 0x00, 0x73, 0x65, 0x71, 0x75, 0x65, 0x6e, 0x74, 0x69, 
	0x61, 0x6c, 0x2f, 0x64, 0x65, 0x6e, 0x73, 0x65, 0x2f, 0x42, 0x69, 0x61, 
	0x73, 0x41, 0x64, 0x64, 0x2f, 0x52, 0x65, 0x61, 0x64, 0x56, 0x61, 0x72, 
	0x69, 0x61, 0x62, 0x6c, 0x65, 0x4f, 0x70, 0x00, 0x01, 0x00, 0x00, 0x00, 
	0x0a, 0x00, 0x00, 0x00, 0x0a, 0xff, 0xff, 0xff, 0x00, 0x00, 0x00, 0x01, 
	0x10, 0x00, 0x00, 0x00, 0x10, 0x00, 0x00, 0x00, 0x05, 0x00, 0x00, 0x00, 
	0x28, 0x00, 0x00, 0x00, 0x70, 0xfe, 0xff, 0xff, 0x1a, 0x00, 0x00, 0x00, 
	0x73, 0x65, 0x71, 0x75, 0x65, 0x6e, 0x74, 0x69, 0x61, 0x6c, 0x2f, 0x63, 
	0x6f, 0x6e, 0x76, 0x32, 0x64, 0x5f, 0x31, 0x2f, 0x43, 0x6f, 0x6e, 0x76, 
	0x32, 0x44, 0x00, 0x00, 0x04, 0x00, 0x00, 0x00, 0x10, 0x00, 0x00, 0x00, 
	0x03, 0x00, 0x00, 0x00, 0x03, 0x00, 0x00, 0x00, 0x08, 0x00, 0x00, 0x00, 
	0x5a, 0xff, 0xff, 0xff, 0x00, 0x00, 0x00, 0x01, 0x10, 0x00, 0x00, 0x00, 
	0x10, 0x00, 0x00, 0x00, 0x04, 0x00, 0x00, 0x00, 0x28, 0x00, 0x00, 0x00, 
	0xc0, 0xfe, 0xff, 0xff, 0x18, 0x00, 0x00, 0x00, 0x73, 0x65, 0x71, 0x75, 
	0x65, 0x6e, 0x74, 0x69, 0x61, 0x6c, 0x2f, 0x63, 0x6f, 0x6e, 0x76, 0x32, 
	0x64, 0x2f, 0x43, 0x6f, 0x6e, 0x76, 0x32, 0x44, 0x00, 0x00, 0x00, 0x00, 
	0x04, 0x00, 0x00, 0x00, 0x08, 0x00, 0x00, 0x00, 0x03, 0x00, 0x00, 0x00, 
	0x03, 0x00, 0x00, 0x00, 0x01, 0x00, 0x00, 0x00, 0xaa, 0xff, 0xff, 0xff, 
	0x00, 0x00, 0x00, 0x01, 0x10, 0x00, 0x00, 0x00, 0x10, 0x00, 0x00, 0x00, 
	0x03, 0x00, 0x00, 0x00, 0x38, 0x00, 0x00, 0x00, 0x10, 0xff, 0xff, 0xff, 
	0x2a, 0x00, 0x00, 0x00, 0x73, 0x65, 0x71, 0x75, 0x65, 0x6e, 0x74, 0x69, 
	0x61, 0x6c, 0x2f, 0x63, 0x6f, 0x6e, 0x76, 0x32, 0x64, 0x5f, 0x31, 0x2f, 
	0x42, 0x69, 0x61, 0x73, 0x41, 0x64, 0x64, 0x2f, 0x52, 0x65, 0x61, 0x64, 
	0x56, 0x61, 0x72, 0x69, 0x61, 0x62, 0x6c, 0x65, 0x4f, 0x70, 0x00, 0x00, 
	0x01, 0x00, 0x00, 0x00, 0x10, 0x00, 0x00, 0x00, 0x00, 0x00, 0x16, 0x00, 
	0x18, 0x00, 0x14, 0x00, 0x00, 0x00, 0x10, 0x00, 0x0c, 0x00, 0x08, 0x00, 
	0x00, 0x00, 0x00, 0x00, 0x00, 0x00, 0x07, 0x00, 0x16, 0x00, 0x00, 0x00, 
	0x00, 0x00, 0x00, 0x01, 0x10, 0x00, 0x00, 0x00, 0x10, 0x00, 0x00, 0x00, 
	0x02, 0x00, 0x00, 0x00, 0x38, 0x00, 0x00, 0x00, 0x7c, 0xff, 0xff, 0xff, 
	0x28, 0x00, 0x00, 0x00, 0x73, 0x65, 0x71, 0x75, 0x65, 0x6e, 0x74, 0x69, 
	0x61, 0x6c, 0x2f, 0x63, 0x6f, 0x6e, 0x76, 0x32, 0x64, 0x2f, 0x42, 0x69, 
	0x61, 0x73, 0x41, 0x64, 0x64, 0x2f, 0x52, 0x65, 0x61, 0x64, 0x56, 0x61, 
	0x72, 0x69, 0x61, 0x62, 0x6c, 0x65, 0x4f, 0x70, 0x00, 0x00, 0x00, 0x00, 
	0x01, 0x00, 0x00, 0x00, 0x08, 0x00, 0x00, 0x00, 0x00, 0x00, 0x16, 0x00, 
	0x1c, 0x00, 0x18, 0x00, 0x00, 0x00, 0x14, 0x00, 0x10, 0x00, 0x0c, 0x00, 
	0x00, 0x00, 0x00, 0x00, 0x08, 0x00, 0x07, 0x00, 0x16, 0x00, 0x00, 0x00, 
	0x00, 0x00, 0x00, 0x01, 0x14, 0x00, 0x00, 0x00, 0x28, 0x00, 0x00, 0x00, 
	0x28, 0x00, 0x00, 0x00, 0x01, 0x00, 0x00, 0x00, 0x44, 0x00, 0x00, 0x00, 
	0x04, 0x00, 0x00, 0x00, 0xff, 0xff, 0xff, 0xff, 0x08, 0x00, 0x00, 0x00, 
	0x08, 0x00, 0x00, 0x00, 0x01, 0x00, 0x00, 0x00, 0x04, 0x00, 0x04, 0x00, 
	0x04, 0x00, 0x00, 0x00, 0x1e, 0x00, 0x00, 0x00, 0x73, 0x65, 0x72, 0x76, 
	0x69, 0x6e, 0x67, 0x5f, 0x64, 0x65, 0x66, 0x61, 0x75, 0x6c, 0x74, 0x5f, 
	0x63, 0x6f, 0x6e, 0x76, 0x32, 0x64, 0x5f, 0x69, 0x6e, 0x70, 0x75, 0x74, 
	0x3a, 0x30, 0x00, 0x00, 0x04, 0x00, 0x00, 0x00, 0x01, 0x00, 0x00, 0x00, 
	0x08, 0x00, 0x00, 0x00, 0x08, 0x00, 0x00, 0x00, 0x01, 0x00, 0x00, 0x00, 
	0x04, 0x00, 0x00, 0x00, 0x40, 0x00, 0x00, 0x00, 0x24, 0x00, 0x00, 0x00, 
	0x14, 0x00, 0x00, 0x00, 0x04, 0x00, 0x00, 0x00, 0xdc, 0xff, 0xff, 0xff, 
	0x09, 0x00, 0x00, 0x00, 0x00, 0x00, 0x00, 0x09, 0xe8, 0xff, 0xff, 0xff, 
	0x16, 0x00, 0x00, 0x00, 0x00, 0x00, 0x00, 0x16, 0xf4, 0xff, 0xff, 0xff, 
	0x11, 0x00, 0x00, 0x00, 0x00, 0x00, 0x00, 0x11, 0x0c, 0x00, 0x0c, 0x00, 
	0x0b, 0x00, 0x00, 0x00, 0x00, 0x00, 0x04, 0x00, 0x0c, 0x00, 0x00, 0x00, 
	0x03, 0x00, 0x00, 0x00, 0x00, 0x00, 0x00, 0x03
};
const int HandwrittenDigitsModel_len = 8288;
float x_test[64] = { 0.0, 0.125, 0.0, 0.5, 0.5625, 0.0, 0.0, 0.0, 0.0, 0.8125, 0.3125, 0.875, 0.5, 0.4375, 0.0, 0.0, 0.0, 0.75, 0.3125, 0.125, 0.0, 0.5625, 0.0, 0.0, 0.0, 0.4375, 0.3125, 0.0, 0.0, 0.1875, 0.3125, 0.0, 0.0, 0.1875, 0.625, 0.0, 0.0, 0.125, 0.625, 0.0, 0.0, 0.0625, 0.8125, 0.0, 0.0, 0.0625, 0.75, 0.0, 0.0, 0.0, 0.3125, 0.8125, 0.3125, 0.5625, 0.8125, 0.0, 0.0, 0.0, 0.0, 0.5625, 1.0, 1.0, 0.4375, 0.0 };
const int y_test = 0;